{
  "version": "1.0",
  "truncation": null,
  "padding": null,
  "added_tokens": [
    {
      "id": 0,
      "content": "<PAD>",
      "single_word": false,
      "lstrip": false,
      "rstrip": false,
      "normalized": false,
      "special": true
    },
    {
      "id": 1,
      "content": "<SOS>",
      "single_word": false,
      "lstrip": false,
      "rstrip": false,
      "normalized": false,
      "special": true
    },
    {
      "id": 2,
      "content": "<EOS>",
      "single_word": false,
      "lstrip": false,
      "rstrip": false,
      "normalized": false,
      "special": true
    },
    {
      "id": 3,
      "content": "<UNK>",
      "single_word": false,
      "lstrip": false,
      "rstrip": false,
      "normalized": false,
      "special": true
    },
    {
      "id": 4,
      "content": "<ug>",
      "single_word": false,
      "lstrip": false,
      "rstrip": false,
      "normalized": false,
      "special": true
    },
    {
      "id": 5,
      "content": "</ug>",
      "single_word": false,
      "lstrip": false,
      "rstrip": false,
      "normalized": false,
      "special": true
    },
    {
      "id": 6,
      "content": "<en>",
      "single_word": false,
      "lstrip": false,
      "rstrip": false,
      "normalized": false,
      "special": true
    },
    {
      "id": 7,
      "content": "</en>",
      "single_word": false,
      "lstrip": false,
      "rstrip": false,
      "normalized": false,
      "special": true
    },
    {
      "id": 8,
      "content": "<jp>",
      "single_word": false,
      "lstrip": false,
      "rstrip": false,
      "normalized": false,
      "special": true
    },
    {
      "id": 9,
      "content": "</jp>",
      "single_word": false,
      "lstrip": false,
      "rstrip": false,
      "normalized": false,
      "special": true
    },
    {
      "id": 10,
      "content": "<zh>",
      "single_word": false,
      "lstrip": false,
      "rstrip": false,
      "normalized": false,
      "special": true
    },
    {
      "id": 11,
      "content": "</zh>",
      "single_word": false,
      "lstrip": false,
      "rstrip": false,
      "normalized": false,
      "special": true
    },
    {
      "id": 12,
      "content": "<uz>",
      "single_word": false,
      "lstrip": false,
      "rstrip": false,
      "normalized": false,
      "special": true
    },
    {
      "id": 13,
      "content": "</uz>",
      "single_word": false,
      "lstrip": false,
      "rstrip": false,
      "normalized": false,
      "special": true
    },
    {
      "id": 14,
      "content": "<kk>",
      "single_word": false,
      "lstrip": false,
      "rstrip": false,
      "normalized": false,
      "special": true
    },
    {
      "id": 15,
      "content": "</kk>",
      "single_word": false,
      "lstrip": false,
      "rstrip": false,
      "normalized": false,
      "special": true
    },
    {
      "id": 16,
      "content": "<ky>",
      "single_word": false,
      "lstrip": false,
      "rstrip": false,
      "normalized": false,
      "special": true
    },
    {
      "id": 17,
      "content": "</ky>",
      "single_word": false,
      "lstrip": false,
      "rstrip": false,
      "normalized": false,
      "special": true
    },
    {
      "id": 18,
      "content": "<tr>",
      "single_word": false,
      "lstrip": false,
      "rstrip": false,
      "normalized": false,
      "special": true
    },
    {
      "id": 19,
      "content": "</tr>",
      "single_word": false,
      "lstrip": false,
      "rstrip": false,
      "normalized": false,
      "special": true
    },
    {
      "id": 20,
      "content": "<ru>",
      "single_word": false,
      "lstrip": false,
      "rstrip": false,
      "normalized": false,
      "special": true
    },
    {
      "id": 21,
      "content": "</ru>",
      "single_word": false,
      "lstrip": false,
      "rstrip": false,
      "normalized": false,
      "special": true
    }
  ],
  "normalizer": null,
  "pre_tokenizer": {
    "type": "Metaspace",
    "replacement": "▁",
    "prepend_scheme": "always",
    "split": true
  },
  "post_processor": null,
  "decoder": null,
  "model": {
    "type": "BPE",
    "dropout": null,
    "unk_token": "<UNK>",
    "continuing_subword_prefix": null,
    "end_of_word_suffix": null,
    "fuse_unk": false,
    "byte_fallback": false,
    "ignore_merges": false,
    "vocab": {
      "<PAD>": 0,
      "<SOS>": 1,
      "<EOS>": 2,
      "<UNK>": 3,
      "<ug>": 4,
      "</ug>": 5,
      "<en>": 6,
      "</en>": 7,
      "<jp>": 8,
      "</jp>": 9,
      "<zh>": 10,
      "</zh>": 11,
      "<uz>": 12,
      "</uz>": 13,
      "<kk>": 14,
      "</kk>": 15,
      "<ky>": 16,
      "</ky>": 17,
      "<tr>": 18,
      "</tr>": 19,
      "<ru>": 20,
      "</ru>": 21,
      "\t": 22,
      "\n": 23,
      "\r": 24,
      "!": 25,
      "\"": 26,
      "#": 27,
      "$": 28,
      "%": 29,
      "&": 30,
      "'": 31,
      "(": 32,
      ")": 33,
      "*": 34,
      "+": 35,
      ",": 36,
      "-": 37,
      ".": 38,
      "/": 39,
      "0": 40,
      "1": 41,
      "2": 42,
      "3": 43,
      "4": 44,
      "5": 45,
      "6": 46,
      "7": 47,
      "8": 48,
      "9": 49,
      ":": 50,
      ";": 51,
      "<": 52,
      "=": 53,
      ">": 54,
      "?": 55,
      "@": 56,
      "A": 57,
      "B": 58,
      "C": 59,
      "D": 60,
      "E": 61,
      "F": 62,
      "G": 63,
      "H": 64,
      "I": 65,
      "J": 66,
      "K": 67,
      "L": 68,
      "M": 69,
      "N": 70,
      "O": 71,
      "P": 72,
      "Q": 73,
      "R": 74,
      "S": 75,
      "T": 76,
      "U": 77,
      "V": 78,
      "W": 79,
      "X": 80,
      "Y": 81,
      "Z": 82,
      "[": 83,
      "\\": 84,
      "]": 85,
      "^": 86,
      "_": 87,
      "`": 88,
      "a": 89,
      "b": 90,
      "c": 91,
      "d": 92,
      "e": 93,
      "f": 94,
      "g": 95,
      "h": 96,
      "i": 97,
      "j": 98,
      "k": 99,
      "l": 100,
      "m": 101,
      "n": 102,
      "o": 103,
      "p": 104,
      "q": 105,
      "r": 106,
      "s": 107,
      "t": 108,
      "u": 109,
      "v": 110,
      "w": 111,
      "x": 112,
      "y": 113,
      "z": 114,
      "{": 115,
      "|": 116,
      "}": 117,
      " ": 118,
      "£": 119,
      "¥": 120,
      "«": 121,
      "­": 122,
      "®": 123,
      "²": 124,
      "´": 125,
      "·": 126,
      "¹": 127,
      "º": 128,
      "»": 129,
      "À": 130,
      "Á": 131,
      "Â": 132,
      "Ä": 133,
      "Æ": 134,
      "Ç": 135,
      "É": 136,
      "Ì": 137,
      "Ñ": 138,
      "Ó": 139,
      "Ö": 140,
      "×": 141,
      "Ú": 142,
      "Ü": 143,
      "à": 144,
      "á": 145,
      "â": 146,
      "ã": 147,
      "ä": 148,
      "å": 149,
      "æ": 150,
      "ç": 151,
      "è": 152,
      "é": 153,
      "ê": 154,
      "ë": 155,
      "ì": 156,
      "í": 157,
      "î": 158,
      "ï": 159,
      "ð": 160,
      "ñ": 161,
      "ò": 162,
      "ó": 163,
      "ô": 164,
      "õ": 165,
      "ö": 166,
      "ø": 167,
      "ù": 168,
      "ú": 169,
      "û": 170,
      "ü": 171,
      "ý": 172,
      "ā": 173,
      "ą": 174,
      "ć": 175,
      "č": 176,
      "đ": 177,
      "ē": 178,
      "ė": 179,
      "ę": 180,
      "ĝ": 181,
      "Ğ": 182,
      "ğ": 183,
      "ġ": 184,
      "ģ": 185,
      "ī": 186,
      "ĭ": 187,
      "į": 188,
      "İ": 189,
      "ı": 190,
      "ķ": 191,
      "ł": 192,
      "ń": 193,
      "ň": 194,
      "ŋ": 195,
      "ō": 196,
      "ŏ": 197,
      "Ś": 198,
      "ś": 199,
      "Ş": 200,
      "ş": 201,
      "Š": 202,
      "š": 203,
      "ū": 204,
      "Ŭ": 205,
      "ŭ": 206,
      "ŵ": 207,
      "ż": 208,
      "Ž": 209,
      "ž": 210,
      "ſ": 211,
      "Ə": 212,
      "ƛ": 213,
      "ƻ": 214,
      "ǎ": 215,
      "ǐ": 216,
      "ǒ": 217,
      "ǔ": 218,
      "ǜ": 219,
      "ǧ": 220,
      "ǵ": 221,
      "ș": 222,
      "ț": 223,
      "ə": 224,
      "ɪ": 225,
      "ɵ": 226,
      "ʃ": 227,
      "ʊ": 228,
      "ʏ": 229,
      "ʒ": 230,
      "ʺ": 231,
      "ʻ": 232,
      "ʼ": 233,
      "ʾ": 234,
      "́": 235,
      "̂": 236,
      "̆": 237,
      "̇": 238,
      "̈": 239,
      "̧": 240,
      "̸": 241,
      "͡": 242,
      "α": 243,
      "ι": 244,
      "μ": 245,
      "π": 246,
      "Ё": 247,
      "І": 248,
      "А": 249,
      "Б": 250,
      "В": 251,
      "Г": 252,
      "Д": 253,
      "Е": 254,
      "Ж": 255,
      "З": 256,
      "И": 257,
      "Й": 258,
      "К": 259,
      "Л": 260,
      "М": 261,
      "Н": 262,
      "О": 263,
      "П": 264,
      "Р": 265,
      "С": 266,
      "Т": 267,
      "У": 268,
      "Ф": 269,
      "Х": 270,
      "Ц": 271,
      "Ч": 272,
      "Ш": 273,
      "Щ": 274,
      "Ъ": 275,
      "Ы": 276,
      "Ь": 277,
      "Э": 278,
      "Ю": 279,
      "Я": 280,
      "а": 281,
      "б": 282,
      "в": 283,
      "г": 284,
      "д": 285,
      "е": 286,
      "ж": 287,
      "з": 288,
      "и": 289,
      "й": 290,
      "к": 291,
      "л": 292,
      "м": 293,
      "н": 294,
      "о": 295,
      "п": 296,
      "р": 297,
      "с": 298,
      "т": 299,
      "у": 300,
      "ф": 301,
      "х": 302,
      "ц": 303,
      "ч": 304,
      "ш": 305,
      "щ": 306,
      "ъ": 307,
      "ы": 308,
      "ь": 309,
      "э": 310,
      "ю": 311,
      "я": 312,
      "ё": 313,
      "є": 314,
      "і": 315,
      "ї": 316,
      "ј": 317,
      "ў": 318,
      "ѳ": 319,
      "Ґ": 320,
      "ґ": 321,
      "Ғ": 322,
      "ғ": 323,
      "Җ": 324,
      "җ": 325,
      "Қ": 326,
      "қ": 327,
      "ҡ": 328,
      "Ң": 329,
      "ң": 330,
      "ҥ": 331,
      "Ү": 332,
      "ү": 333,
      "Ұ": 334,
      "ұ": 335,
      "Ҳ": 336,
      "ҳ": 337,
      "Ҷ": 338,
      "Һ": 339,
      "һ": 340,
      "ӊ": 341,
      "Ә": 342,
      "ә": 343,
      "Ө": 344,
      "ө": 345,
      "ӽ": 346,
      "Ս": 347,
      "ե": 348,
      "պ": 349,
      "ս": 350,
      "י": 351,
      "נ": 352,
      "،": 353,
      "؛": 354,
      "؟": 355,
      "ؤ": 356,
      "ئ": 357,
      "ا": 358,
      "ب": 359,
      "ت": 360,
      "ث": 361,
      "ج": 362,
      "خ": 363,
      "د": 364,
      "ر": 365,
      "ز": 366,
      "س": 367,
      "ش": 368,
      "ص": 369,
      "ع": 370,
      "غ": 371,
      "ـ": 372,
      "ف": 373,
      "ق": 374,
      "ك": 375,
      "ل": 376,
      "م": 377,
      "ن": 378,
      "ه": 379,
      "و": 380,
      "ى": 381,
      "ي": 382,
      "پ": 383,
      "ځ": 384,
      "چ": 385,
      "ژ": 386,
      "ڧ": 387,
      "ک": 388,
      "ڭ": 389,
      "گ": 390,
      "ھ": 391,
      "ۆ": 392,
      "ۇ": 393,
      "ۈ": 394,
      "ۋ": 395,
      "ی": 396,
      "ې": 397,
      "ە": 398,
      "ं": 399,
      "अ": 400,
      "आ": 401,
      "इ": 402,
      "ई": 403,
      "क": 404,
      "ख": 405,
      "ग": 406,
      "च": 407,
      "छ": 408,
      "ज": 409,
      "ट": 410,
      "ड": 411,
      "ण": 412,
      "त": 413,
      "द": 414,
      "ध": 415,
      "न": 416,
      "प": 417,
      "फ": 418,
      "म": 419,
      "य": 420,
      "र": 421,
      "ल": 422,
      "व": 423,
      "श": 424,
      "स": 425,
      "ह": 426,
      "़": 427,
      "ा": 428,
      "ि": 429,
      "ी": 430,
      "ु": 431,
      "ू": 432,
      "े": 433,
      "ॉ": 434,
      "ो": 435,
      "्": 436,
      "ং": 437,
      "উ": 438,
      "ক": 439,
      "গ": 440,
      "চ": 441,
      "দ": 442,
      "ন": 443,
      "ব": 444,
      "র": 445,
      "ল": 446,
      "া": 447,
      "ি": 448,
      "ু": 449,
      "ূ": 450,
      "ে": 451,
      "ਰ": 452,
      "ੁ": 453,
      "એ": 454,
      "ક": 455,
      "મ": 456,
      "ી": 457,
      "அ": 458,
      "எ": 459,
      "த": 460,
      "ந": 461,
      "்": 462,
      "చ": 463,
      "ర": 464,
      "్": 465,
      "ಗ": 466,
      "ಲ": 467,
      "ಳ": 468,
      "ವ": 469,
      "ಶ": 470,
      "ಷ": 471,
      "ಹ": 472,
      "ಿ": 473,
      "ೆ": 474,
      "ೇ": 475,
      "್": 476,
      "ഒ": 477,
      "ര": 478,
      "ു": 479,
      "ก": 480,
      "ม": 481,
      "อ": 482,
      "า": 483,
      "ა": 484,
      "ე": 485,
      "ი": 486,
      "კ": 487,
      "ლ": 488,
      "მ": 489,
      "ნ": 490,
      "ო": 491,
      "ዙ": 492,
      "ច": 493,
      "ន": 494,
      "ួ": 495,
      "ំ": 496,
      "ṁ": 497,
      "ṟ": 498,
      "ṣ": 499,
      "ẩ": 500,
      "ổ": 501,
      "ờ": 502,
      "ủ": 503,
      "ữ": 504,
      "ự": 505,
      "ỳ": 506,
      "​": 507,
      "‍": 508,
      "‎": 509,
      "‑": 510,
      "–": 511,
      "—": 512,
      "―": 513,
      "‘": 514,
      "’": 515,
      "“": 516,
      "”": 517,
      "„": 518,
      "•": 519,
      "…": 520,
      "′": 521,
      "‹": 522,
      "›": 523,
      "₂": 524,
      "€": 525,
      "℃": 526,
      "№": 527,
      "Ⅰ": 528,
      "Ⅲ": 529,
      "Ⅵ": 530,
      "←": 531,
      "↑": 532,
      "→": 533,
      "⇋": 534,
      "⇌": 535,
      "−": 536,
      "∙": 537,
      "√": 538,
      "∞": 539,
      "≠": 540,
      "⏰": 541,
      "│": 542,
      "▁": 543,
      "▕": 544,
      "☆": 545,
      "❤": 546,
      "⼥": 547,
      "　": 548,
      "、": 549,
      "。": 550,
      "々": 551,
      "〇": 552,
      "〉": 553,
      "《": 554,
      "》": 555,
      "「": 556,
      "」": 557,
      "『": 558,
      "』": 559,
      "【": 560,
      "】": 561,
      "〜": 562,
      "ぁ": 563,
      "あ": 564,
      "ぃ": 565,
      "い": 566,
      "う": 567,
      "ぇ": 568,
      "え": 569,
      "お": 570,
      "か": 571,
      "が": 572,
      "き": 573,
      "ぎ": 574,
      "く": 575,
      "ぐ": 576,
      "け": 577,
      "げ": 578,
      "こ": 579,
      "ご": 580,
      "さ": 581,
      "ざ": 582,
      "し": 583,
      "じ": 584,
      "す": 585,
      "ず": 586,
      "せ": 587,
      "ぜ": 588,
      "そ": 589,
      "ぞ": 590,
      "た": 591,
      "だ": 592,
      "ち": 593,
      "っ": 594,
      "つ": 595,
      "づ": 596,
      "て": 597,
      "で": 598,
      "と": 599,
      "ど": 600,
      "な": 601,
      "に": 602,
      "ぬ": 603,
      "ね": 604,
      "の": 605,
      "は": 606,
      "ば": 607,
      "ぱ": 608,
      "ひ": 609,
      "び": 610,
      "ぴ": 611,
      "ふ": 612,
      "ぶ": 613,
      "ぷ": 614,
      "へ": 615,
      "べ": 616,
      "ぺ": 617,
      "ほ": 618,
      "ぼ": 619,
      "ぽ": 620,
      "ま": 621,
      "み": 622,
      "む": 623,
      "め": 624,
      "も": 625,
      "ゃ": 626,
      "や": 627,
      "ゅ": 628,
      "ゆ": 629,
      "ょ": 630,
      "よ": 631,
      "ら": 632,
      "り": 633,
      "る": 634,
      "れ": 635,
      "ろ": 636,
      "わ": 637,
      "を": 638,
      "ん": 639,
      "ァ": 640,
      "ア": 641,
      "ィ": 642,
      "イ": 643,
      "ゥ": 644,
      "ウ": 645,
      "ェ": 646,
      "エ": 647,
      "ォ": 648,
      "オ": 649,
      "カ": 650,
      "ガ": 651,
      "キ": 652,
      "ギ": 653,
      "ク": 654,
      "グ": 655,
      "ケ": 656,
      "ゲ": 657,
      "コ": 658,
      "ゴ": 659,
      "サ": 660,
      "ザ": 661,
      "シ": 662,
      "ジ": 663,
      "ス": 664,
      "ズ": 665,
      "セ": 666,
      "ゼ": 667,
      "ソ": 668,
      "ゾ": 669,
      "タ": 670,
      "ダ": 671,
      "チ": 672,
      "ヂ": 673,
      "ッ": 674,
      "ツ": 675,
      "ヅ": 676,
      "テ": 677,
      "デ": 678,
      "ト": 679,
      "ド": 680,
      "ナ": 681,
      "ニ": 682,
      "ヌ": 683,
      "ネ": 684,
      "ノ": 685,
      "ハ": 686,
      "バ": 687,
      "パ": 688,
      "ヒ": 689,
      "ビ": 690,
      "ピ": 691,
      "フ": 692,
      "ブ": 693,
      "プ": 694,
      "ヘ": 695,
      "ベ": 696,
      "ペ": 697,
      "ホ": 698,
      "ボ": 699,
      "ポ": 700,
      "マ": 701,
      "ミ": 702,
      "ム": 703,
      "メ": 704,
      "モ": 705,
      "ャ": 706,
      "ヤ": 707,
      "ュ": 708,
      "ユ": 709,
      "ョ": 710,
      "ヨ": 711,
      "ラ": 712,
      "リ": 713,
      "ル": 714,
      "レ": 715,
      "ロ": 716,
      "ワ": 717,
      "ン": 718,
      "ヴ": 719,
      "ヶ": 720,
      "・": 721,
      "ー": 722,
      "一": 723,
      "丁": 724,
      "七": 725,
      "丄": 726,
      "万": 727,
      "丈": 728,
      "三": 729,
      "上": 730,
      "下": 731,
      "不": 732,
      "与": 733,
      "丐": 734,
      "丑": 735,
      "专": 736,
      "且": 737,
      "丕": 738,
      "世": 739,
      "丘": 740,
      "丙": 741,
      "业": 742,
      "丛": 743,
      "东": 744,
      "丝": 745,
      "丞": 746,
      "丟": 747,
      "両": 748,
      "丢": 749,
      "两": 750,
      "严": 751,
      "並": 752,
      "丧": 753,
      "丨": 754,
      "个": 755,
      "中": 756,
      "丰": 757,
      "串": 758,
      "临": 759,
      "丸": 760,
      "丹": 761,
      "为": 762,
      "主": 763,
      "丽": 764,
      "举": 765,
      "乃": 766,
      "久": 767,
      "么": 768,
      "义": 769,
      "之": 770,
      "乌": 771,
      "乍": 772,
      "乎": 773,
      "乏": 774,
      "乐": 775,
      "乒": 776,
      "乓": 777,
      "乔": 778,
      "乖": 779,
      "乗": 780,
      "乘": 781,
      "乙": 782,
      "九": 783,
      "乞": 784,
      "也": 785,
      "习": 786,
      "乡": 787,
      "书": 788,
      "买": 789,
      "乱": 790,
      "乳": 791,
      "乾": 792,
      "亀": 793,
      "了": 794,
      "予": 795,
      "争": 796,
      "事": 797,
      "二": 798,
      "于": 799,
      "亏": 800,
      "云": 801,
      "互": 802,
      "五": 803,
      "井": 804,
      "亚": 805,
      "些": 806,
      "亜": 807,
      "亞": 808,
      "亟": 809,
      "亡": 810,
      "亢": 811,
      "交": 812,
      "亥": 813,
      "亦": 814,
      "产": 815,
      "亨": 816,
      "亩": 817,
      "享": 818,
      "京": 819,
      "亭": 820,
      "亮": 821,
      "亲": 822,
      "亵": 823,
      "人": 824,
      "亿": 825,
      "什": 826,
      "仁": 827,
      "仃": 828,
      "仅": 829,
      "仆": 830,
      "仇": 831,
      "今": 832,
      "介": 833,
      "仍": 834,
      "从": 835,
      "仏": 836,
      "仑": 837,
      "仓": 838,
      "仔": 839,
      "仕": 840,
      "他": 841,
      "仗": 842,
      "付": 843,
      "仙": 844,
      "代": 845,
      "令": 846,
      "以": 847,
      "仨": 848,
      "仪": 849,
      "们": 850,
      "仮": 851,
      "仰": 852,
      "仲": 853,
      "件": 854,
      "价": 855,
      "任": 856,
      "份": 857,
      "仿": 858,
      "企": 859,
      "伊": 860,
      "伍": 861,
      "伎": 862,
      "伏": 863,
      "伐": 864,
      "休": 865,
      "众": 866,
      "优": 867,
      "伙": 868,
      "会": 869,
      "伝": 870,
      "伞": 871,
      "伟": 872,
      "传": 873,
      "伤": 874,
      "伦": 875,
      "伪": 876,
      "伯": 877,
      "估": 878,
      "伴": 879,
      "伶": 880,
      "伸": 881,
      "伺": 882,
      "似": 883,
      "伽": 884,
      "但": 885,
      "佇": 886,
      "位": 887,
      "低": 888,
      "住": 889,
      "佐": 890,
      "佑": 891,
      "体": 892,
      "何": 893,
      "佗": 894,
      "余": 895,
      "佛": 896,
      "作": 897,
      "佝": 898,
      "佟": 899,
      "你": 900,
      "佣": 901,
      "佩": 902,
      "佬": 903,
      "佰": 904,
      "佳": 905,
      "併": 906,
      "佼": 907,
      "使": 908,
      "侃": 909,
      "侄": 910,
      "侈": 911,
      "例": 912,
      "侍": 913,
      "侏": 914,
      "侑": 915,
      "供": 916,
      "依": 917,
      "侠": 918,
      "価": 919,
      "侣": 920,
      "侥": 921,
      "侦": 922,
      "侧": 923,
      "侬": 924,
      "侮": 925,
      "侯": 926,
      "侵": 927,
      "侶": 928,
      "便": 929,
      "係": 930,
      "促": 931,
      "俄": 932,
      "俊": 933,
      "俏": 934,
      "俐": 935,
      "俑": 936,
      "俗": 937,
      "俘": 938,
      "俚": 939,
      "保": 940,
      "俞": 941,
      "信": 942,
      "俩": 943,
      "俪": 944,
      "俭": 945,
      "修": 946,
      "俯": 947,
      "俱": 948,
      "俳": 949,
      "俸": 950,
      "俺": 951,
      "俾": 952,
      "倉": 953,
      "個": 954,
      "倍": 955,
      "們": 956,
      "倒": 957,
      "候": 958,
      "倚": 959,
      "借": 960,
      "倡": 961,
      "倣": 962,
      "値": 963,
      "倦": 964,
      "倩": 965,
      "倪": 966,
      "倫": 967,
      "倶": 968,
      "倹": 969,
      "债": 970,
      "值": 971,
      "倾": 972,
      "偃": 973,
      "假": 974,
      "偉": 975,
      "偎": 976,
      "偏": 977,
      "偕": 978,
      "做": 979,
      "停": 980,
      "健": 981,
      "偲": 982,
      "側": 983,
      "偵": 984,
      "偶": 985,
      "偷": 986,
      "偻": 987,
      "偽": 988,
      "偿": 989,
      "傀": 990,
      "傅": 991,
      "傍": 992,
      "傑": 993,
      "傘": 994,
      "備": 995,
      "储": 996,
      "催": 997,
      "傭": 998,
      "傲": 999,
      "債": 1000,
      "傷": 1001,
      "傻": 1002,
      "傾": 1003,
      "働": 1004,
      "像": 1005,
      "僕": 1006,
      "僚": 1007,
      "僧": 1008,
      "僵": 1009,
      "價": 1010,
      "僻": 1011,
      "儀": 1012,
      "億": 1013,
      "儒": 1014,
      "償": 1015,
      "儡": 1016,
      "優": 1017,
      "儲": 1018,
      "儷": 1019,
      "儿": 1020,
      "兀": 1021,
      "允": 1022,
      "元": 1023,
      "兄": 1024,
      "充": 1025,
      "兆": 1026,
      "先": 1027,
      "光": 1028,
      "克": 1029,
      "免": 1030,
      "兎": 1031,
      "児": 1032,
      "兑": 1033,
      "兔": 1034,
      "党": 1035,
      "兜": 1036,
      "入": 1037,
      "內": 1038,
      "全": 1039,
      "兩": 1040,
      "兪": 1041,
      "八": 1042,
      "公": 1043,
      "六": 1044,
      "兰": 1045,
      "共": 1046,
      "关": 1047,
      "兴": 1048,
      "兵": 1049,
      "其": 1050,
      "具": 1051,
      "典": 1052,
      "兹": 1053,
      "养": 1054,
      "兼": 1055,
      "兽": 1056,
      "内": 1057,
      "円": 1058,
      "冈": 1059,
      "冉": 1060,
      "冊": 1061,
      "册": 1062,
      "再": 1063,
      "冒": 1064,
      "冕": 1065,
      "冗": 1066,
      "写": 1067,
      "军": 1068,
      "农": 1069,
      "冠": 1070,
      "冢": 1071,
      "冤": 1072,
      "冥": 1073,
      "冨": 1074,
      "冪": 1075,
      "冬": 1076,
      "冯": 1077,
      "冰": 1078,
      "冲": 1079,
      "决": 1080,
      "冴": 1081,
      "况": 1082,
      "冶": 1083,
      "冷": 1084,
      "冻": 1085,
      "冼": 1086,
      "净": 1087,
      "凄": 1088,
      "准": 1089,
      "凉": 1090,
      "凋": 1091,
      "凌": 1092,
      "凍": 1093,
      "减": 1094,
      "凑": 1095,
      "凛": 1096,
      "凝": 1097,
      "几": 1098,
      "凡": 1099,
      "凤": 1100,
      "処": 1101,
      "凧": 1102,
      "凭": 1103,
      "凯": 1104,
      "凰": 1105,
      "凱": 1106,
      "凳": 1107,
      "凶": 1108,
      "凸": 1109,
      "凹": 1110,
      "出": 1111,
      "击": 1112,
      "函": 1113,
      "凿": 1114,
      "刀": 1115,
      "刁": 1116,
      "刃": 1117,
      "分": 1118,
      "切": 1119,
      "刈": 1120,
      "刊": 1121,
      "刑": 1122,
      "划": 1123,
      "列": 1124,
      "刘": 1125,
      "则": 1126,
      "刚": 1127,
      "创": 1128,
      "初": 1129,
      "删": 1130,
      "判": 1131,
      "別": 1132,
      "利": 1133,
      "别": 1134,
      "刮": 1135,
      "到": 1136,
      "制": 1137,
      "刷": 1138,
      "券": 1139,
      "刹": 1140,
      "刺": 1141,
      "刻": 1142,
      "刽": 1143,
      "剂": 1144,
      "剃": 1145,
      "則": 1146,
      "削": 1147,
      "前": 1148,
      "剑": 1149,
      "剔": 1150,
      "剖": 1151,
      "剛": 1152,
      "剜": 1153,
      "剣": 1154,
      "剤": 1155,
      "剥": 1156,
      "剧": 1157,
      "剩": 1158,
      "剪": 1159,
      "副": 1160,
      "剰": 1161,
      "割": 1162,
      "創": 1163,
      "劇": 1164,
      "劈": 1165,
      "劉": 1166,
      "劍": 1167,
      "力": 1168,
      "劝": 1169,
      "办": 1170,
      "功": 1171,
      "加": 1172,
      "务": 1173,
      "劣": 1174,
      "动": 1175,
      "助": 1176,
      "努": 1177,
      "劫": 1178,
      "励": 1179,
      "劲": 1180,
      "劳": 1181,
      "労": 1182,
      "効": 1183,
      "劾": 1184,
      "势": 1185,
      "勁": 1186,
      "勃": 1187,
      "勇": 1188,
      "勉": 1189,
      "勋": 1190,
      "勒": 1191,
      "動": 1192,
      "勘": 1193,
      "務": 1194,
      "勝": 1195,
      "募": 1196,
      "勢": 1197,
      "勤": 1198,
      "勧": 1199,
      "勲": 1200,
      "勺": 1201,
      "勾": 1202,
      "勿": 1203,
      "匀": 1204,
      "匂": 1205,
      "包": 1206,
      "匆": 1207,
      "匈": 1208,
      "匕": 1209,
      "化": 1210,
      "北": 1211,
      "匙": 1212,
      "匠": 1213,
      "匣": 1214,
      "匪": 1215,
      "匮": 1216,
      "匯": 1217,
      "匹": 1218,
      "区": 1219,
      "医": 1220,
      "匾": 1221,
      "匿": 1222,
      "十": 1223,
      "千": 1224,
      "升": 1225,
      "午": 1226,
      "卉": 1227,
      "半": 1228,
      "卍": 1229,
      "华": 1230,
      "协": 1231,
      "卑": 1232,
      "卒": 1233,
      "卓": 1234,
      "協": 1235,
      "单": 1236,
      "卖": 1237,
      "南": 1238,
      "単": 1239,
      "博": 1240,
      "卜": 1241,
      "卞": 1242,
      "占": 1243,
      "卡": 1244,
      "卢": 1245,
      "卦": 1246,
      "卧": 1247,
      "卫": 1248,
      "卯": 1249,
      "印": 1250,
      "危": 1251,
      "即": 1252,
      "却": 1253,
      "卵": 1254,
      "卷": 1255,
      "卸": 1256,
      "卿": 1257,
      "厂": 1258,
      "厄": 1259,
      "厅": 1260,
      "历": 1261,
      "厉": 1262,
      "压": 1263,
      "厌": 1264,
      "厍": 1265,
      "厕": 1266,
      "厘": 1267,
      "厚": 1268,
      "原": 1269,
      "厢": 1270,
      "厥": 1271,
      "厦": 1272,
      "厨": 1273,
      "厩": 1274,
      "厭": 1275,
      "厳": 1276,
      "去": 1277,
      "县": 1278,
      "参": 1279,
      "又": 1280,
      "叉": 1281,
      "及": 1282,
      "友": 1283,
      "双": 1284,
      "反": 1285,
      "収": 1286,
      "发": 1287,
      "叔": 1288,
      "取": 1289,
      "受": 1290,
      "变": 1291,
      "叙": 1292,
      "叛": 1293,
      "叠": 1294,
      "叢": 1295,
      "口": 1296,
      "古": 1297,
      "句": 1298,
      "另": 1299,
      "叨": 1300,
      "叩": 1301,
      "只": 1302,
      "叫": 1303,
      "召": 1304,
      "叮": 1305,
      "可": 1306,
      "台": 1307,
      "叱": 1308,
      "史": 1309,
      "右": 1310,
      "叶": 1311,
      "号": 1312,
      "司": 1313,
      "叹": 1314,
      "叼": 1315,
      "吁": 1316,
      "吃": 1317,
      "各": 1318,
      "合": 1319,
      "吉": 1320,
      "吊": 1321,
      "同": 1322,
      "名": 1323,
      "后": 1324,
      "吐": 1325,
      "向": 1326,
      "吒": 1327,
      "吓": 1328,
      "吕": 1329,
      "吗": 1330,
      "君": 1331,
      "吝": 1332,
      "吞": 1333,
      "吟": 1334,
      "吠": 1335,
      "否": 1336,
      "吧": 1337,
      "吨": 1338,
      "含": 1339,
      "听": 1340,
      "吭": 1341,
      "吮": 1342,
      "启": 1343,
      "吱": 1344,
      "吴": 1345,
      "吵": 1346,
      "吸": 1347,
      "吹": 1348,
      "吻": 1349,
      "吼": 1350,
      "吾": 1351,
      "呀": 1352,
      "呂": 1353,
      "呃": 1354,
      "呆": 1355,
      "呈": 1356,
      "呉": 1357,
      "告": 1358,
      "呐": 1359,
      "呑": 1360,
      "呕": 1361,
      "呗": 1362,
      "员": 1363,
      "呛": 1364,
      "呜": 1365,
      "呢": 1366,
      "呦": 1367,
      "周": 1368,
      "呪": 1369,
      "味": 1370,
      "呵": 1371,
      "呸": 1372,
      "呻": 1373,
      "呼": 1374,
      "命": 1375,
      "咀": 1376,
      "咆": 1377,
      "和": 1378,
      "咎": 1379,
      "咏": 1380,
      "咒": 1381,
      "咔": 1382,
      "咕": 1383,
      "咖": 1384,
      "咙": 1385,
      "咚": 1386,
      "咧": 1387,
      "咨": 1388,
      "咪": 1389,
      "咬": 1390,
      "咯": 1391,
      "咱": 1392,
      "咲": 1393,
      "咳": 1394,
      "咸": 1395,
      "咽": 1396,
      "哀": 1397,
      "品": 1398,
      "哄": 1399,
      "哆": 1400,
      "哇": 1401,
      "哈": 1402,
      "响": 1403,
      "哎": 1404,
      "哑": 1405,
      "哒": 1406,
      "哔": 1407,
      "哗": 1408,
      "哟": 1409,
      "員": 1410,
      "哥": 1411,
      "哦": 1412,
      "哨": 1413,
      "哩": 1414,
      "哪": 1415,
      "哭": 1416,
      "哮": 1417,
      "哲": 1418,
      "哺": 1419,
      "唄": 1420,
      "唆": 1421,
      "唇": 1422,
      "唉": 1423,
      "唐": 1424,
      "唑": 1425,
      "唠": 1426,
      "唢": 1427,
      "唤": 1428,
      "唬": 1429,
      "售": 1430,
      "唯": 1431,
      "唱": 1432,
      "唸": 1433,
      "唾": 1434,
      "啃": 1435,
      "啄": 1436,
      "商": 1437,
      "啊": 1438,
      "問": 1439,
      "啓": 1440,
      "啡": 1441,
      "啤": 1442,
      "啦": 1443,
      "啪": 1444,
      "啬": 1445,
      "啮": 1446,
      "啸": 1447,
      "喀": 1448,
      "喂": 1449,
      "善": 1450,
      "喇": 1451,
      "喉": 1452,
      "喊": 1453,
      "喋": 1454,
      "喘": 1455,
      "喙": 1456,
      "喚": 1457,
      "喜": 1458,
      "喝": 1459,
      "喧": 1460,
      "喩": 1461,
      "喪": 1462,
      "喫": 1463,
      "喬": 1464,
      "喰": 1465,
      "喵": 1466,
      "営": 1467,
      "喷": 1468,
      "喻": 1469,
      "喽": 1470,
      "嗅": 1471,
      "嗎": 1472,
      "嗓": 1473,
      "嗜": 1474,
      "嗝": 1475,
      "嗡": 1476,
      "嗣": 1477,
      "嗨": 1478,
      "嗯": 1479,
      "嗳": 1480,
      "嗽": 1481,
      "嘆": 1482,
      "嘈": 1483,
      "嘉": 1484,
      "嘎": 1485,
      "嘏": 1486,
      "嘔": 1487,
      "嘘": 1488,
      "嘛": 1489,
      "嘟": 1490,
      "嘩": 1491,
      "嘱": 1492,
      "嘲": 1493,
      "嘴": 1494,
      "嘶": 1495,
      "嘹": 1496,
      "嘿": 1497,
      "噂": 1498,
      "噎": 1499,
      "噗": 1500,
      "噛": 1501,
      "噜": 1502,
      "噢": 1503,
      "器": 1504,
      "噩": 1505,
      "噪": 1506,
      "噬": 1507,
      "噱": 1508,
      "噴": 1509,
      "噶": 1510,
      "噺": 1511,
      "噼": 1512,
      "嚏": 1513,
      "嚓": 1514,
      "嚢": 1515,
      "嚣": 1516,
      "嚥": 1517,
      "嚷": 1518,
      "嚼": 1519,
      "囊": 1520,
      "囚": 1521,
      "四": 1522,
      "回": 1523,
      "因": 1524,
      "团": 1525,
      "団": 1526,
      "囤": 1527,
      "囧": 1528,
      "园": 1529,
      "困": 1530,
      "囱": 1531,
      "囲": 1532,
      "図": 1533,
      "围": 1534,
      "固": 1535,
      "国": 1536,
      "图": 1537,
      "圃": 1538,
      "圆": 1539,
      "圈": 1540,
      "國": 1541,
      "圏": 1542,
      "園": 1543,
      "土": 1544,
      "圣": 1545,
      "圧": 1546,
      "在": 1547,
      "圭": 1548,
      "地": 1549,
      "圳": 1550,
      "场": 1551,
      "圾": 1552,
      "址": 1553,
      "坂": 1554,
      "均": 1555,
      "坊": 1556,
      "坍": 1557,
      "坎": 1558,
      "坏": 1559,
      "坐": 1560,
      "坑": 1561,
      "块": 1562,
      "坚": 1563,
      "坛": 1564,
      "坝": 1565,
      "坞": 1566,
      "坟": 1567,
      "坠": 1568,
      "坡": 1569,
      "坤": 1570,
      "坦": 1571,
      "坪": 1572,
      "坷": 1573,
      "垂": 1574,
      "垃": 1575,
      "垄": 1576,
      "垅": 1577,
      "型": 1578,
      "垒": 1579,
      "垢": 1580,
      "垣": 1581,
      "垫": 1582,
      "垮": 1583,
      "埃": 1584,
      "埋": 1585,
      "城": 1586,
      "埔": 1587,
      "域": 1588,
      "埠": 1589,
      "執": 1590,
      "培": 1591,
      "基": 1592,
      "埼": 1593,
      "堀": 1594,
      "堂": 1595,
      "堅": 1596,
      "堆": 1597,
      "堇": 1598,
      "堕": 1599,
      "堡": 1600,
      "堤": 1601,
      "堪": 1602,
      "報": 1603,
      "場": 1604,
      "堵": 1605,
      "塁": 1606,
      "塊": 1607,
      "塌": 1608,
      "塑": 1609,
      "塔": 1610,
      "塗": 1611,
      "塘": 1612,
      "塚": 1613,
      "塞": 1614,
      "塩": 1615,
      "填": 1616,
      "塵": 1617,
      "境": 1618,
      "墅": 1619,
      "墉": 1620,
      "墓": 1621,
      "増": 1622,
      "墙": 1623,
      "墜": 1624,
      "增": 1625,
      "墟": 1626,
      "墨": 1627,
      "墩": 1628,
      "墳": 1629,
      "壁": 1630,
      "壇": 1631,
      "壊": 1632,
      "壌": 1633,
      "壑": 1634,
      "壤": 1635,
      "士": 1636,
      "壮": 1637,
      "声": 1638,
      "壱": 1639,
      "売": 1640,
      "壳": 1641,
      "壶": 1642,
      "壺": 1643,
      "处": 1644,
      "备": 1645,
      "変": 1646,
      "复": 1647,
      "夏": 1648,
      "夕": 1649,
      "外": 1650,
      "多": 1651,
      "夜": 1652,
      "够": 1653,
      "夢": 1654,
      "大": 1655,
      "天": 1656,
      "太": 1657,
      "夫": 1658,
      "夭": 1659,
      "央": 1660,
      "夯": 1661,
      "失": 1662,
      "头": 1663,
      "夷": 1664,
      "夸": 1665,
      "夹": 1666,
      "夺": 1667,
      "奂": 1668,
      "奇": 1669,
      "奈": 1670,
      "奉": 1671,
      "奋": 1672,
      "奎": 1673,
      "奏": 1674,
      "契": 1675,
      "奔": 1676,
      "奕": 1677,
      "奖": 1678,
      "套": 1679,
      "奘": 1680,
      "奚": 1681,
      "奠": 1682,
      "奢": 1683,
      "奥": 1684,
      "奧": 1685,
      "奨": 1686,
      "奪": 1687,
      "奮": 1688,
      "女": 1689,
      "奴": 1690,
      "奶": 1691,
      "奸": 1692,
      "她": 1693,
      "好": 1694,
      "如": 1695,
      "妃": 1696,
      "妄": 1697,
      "妆": 1698,
      "妇": 1699,
      "妈": 1700,
      "妊": 1701,
      "妍": 1702,
      "妒": 1703,
      "妓": 1704,
      "妖": 1705,
      "妙": 1706,
      "妥": 1707,
      "妨": 1708,
      "妩": 1709,
      "妬": 1710,
      "妮": 1711,
      "妲": 1712,
      "妳": 1713,
      "妹": 1714,
      "妻": 1715,
      "妾": 1716,
      "姆": 1717,
      "姉": 1718,
      "姊": 1719,
      "始": 1720,
      "姐": 1721,
      "姑": 1722,
      "姓": 1723,
      "委": 1724,
      "姗": 1725,
      "姚": 1726,
      "姜": 1727,
      "姝": 1728,
      "姣": 1729,
      "姥": 1730,
      "姦": 1731,
      "姨": 1732,
      "姪": 1733,
      "姫": 1734,
      "姬": 1735,
      "姻": 1736,
      "姿": 1737,
      "威": 1738,
      "娃": 1739,
      "娅": 1740,
      "娆": 1741,
      "娇": 1742,
      "娘": 1743,
      "娜": 1744,
      "娟": 1745,
      "娠": 1746,
      "娥": 1747,
      "娩": 1748,
      "娯": 1749,
      "娱": 1750,
      "娴": 1751,
      "娶": 1752,
      "娼": 1753,
      "婀": 1754,
      "婆": 1755,
      "婉": 1756,
      "婕": 1757,
      "婚": 1758,
      "婦": 1759,
      "婧": 1760,
      "婪": 1761,
      "婭": 1762,
      "婴": 1763,
      "婵": 1764,
      "婷": 1765,
      "婿": 1766,
      "媒": 1767,
      "媚": 1768,
      "媛": 1769,
      "媲": 1770,
      "媳": 1771,
      "嫁": 1772,
      "嫂": 1773,
      "嫉": 1774,
      "嫌": 1775,
      "嫔": 1776,
      "嫡": 1777,
      "嫣": 1778,
      "嫦": 1779,
      "嫩": 1780,
      "嬉": 1781,
      "嬋": 1782,
      "嬌": 1783,
      "嬛": 1784,
      "嬢": 1785,
      "嬪": 1786,
      "嬷": 1787,
      "子": 1788,
      "孔": 1789,
      "孕": 1790,
      "字": 1791,
      "存": 1792,
      "孙": 1793,
      "孚": 1794,
      "孜": 1795,
      "孝": 1796,
      "孟": 1797,
      "孢": 1798,
      "季": 1799,
      "孤": 1800,
      "学": 1801,
      "孩": 1802,
      "孪": 1803,
      "孫": 1804,
      "孵": 1805,
      "學": 1806,
      "孽": 1807,
      "宁": 1808,
      "它": 1809,
      "宅": 1810,
      "宇": 1811,
      "守": 1812,
      "安": 1813,
      "宋": 1814,
      "完": 1815,
      "宏": 1816,
      "宕": 1817,
      "宗": 1818,
      "官": 1819,
      "宙": 1820,
      "定": 1821,
      "宛": 1822,
      "宜": 1823,
      "宝": 1824,
      "实": 1825,
      "実": 1826,
      "宠": 1827,
      "审": 1828,
      "客": 1829,
      "宣": 1830,
      "室": 1831,
      "宥": 1832,
      "宪": 1833,
      "宫": 1834,
      "宮": 1835,
      "宰": 1836,
      "害": 1837,
      "宴": 1838,
      "宵": 1839,
      "家": 1840,
      "宸": 1841,
      "容": 1842,
      "宽": 1843,
      "宾": 1844,
      "宿": 1845,
      "寂": 1846,
      "寄": 1847,
      "寅": 1848,
      "密": 1849,
      "寇": 1850,
      "富": 1851,
      "寐": 1852,
      "寒": 1853,
      "寓": 1854,
      "寛": 1855,
      "寝": 1856,
      "寞": 1857,
      "察": 1858,
      "寡": 1859,
      "寥": 1860,
      "實": 1861,
      "寧": 1862,
      "寨": 1863,
      "審": 1864,
      "寮": 1865,
      "寵": 1866,
      "寸": 1867,
      "对": 1868,
      "寺": 1869,
      "寻": 1870,
      "导": 1871,
      "対": 1872,
      "寿": 1873,
      "封": 1874,
      "専": 1875,
      "射": 1876,
      "将": 1877,
      "將": 1878,
      "尉": 1879,
      "尊": 1880,
      "尋": 1881,
      "導": 1882,
      "小": 1883,
      "少": 1884,
      "尔": 1885,
      "尕": 1886,
      "尖": 1887,
      "尘": 1888,
      "尚": 1889,
      "尝": 1890,
      "尤": 1891,
      "尧": 1892,
      "尬": 1893,
      "就": 1894,
      "尴": 1895,
      "尸": 1896,
      "尹": 1897,
      "尺": 1898,
      "尻": 1899,
      "尼": 1900,
      "尽": 1901,
      "尾": 1902,
      "尿": 1903,
      "局": 1904,
      "屁": 1905,
      "层": 1906,
      "居": 1907,
      "屈": 1908,
      "屉": 1909,
      "届": 1910,
      "屋": 1911,
      "屍": 1912,
      "屎": 1913,
      "屏": 1914,
      "屑": 1915,
      "屓": 1916,
      "展": 1917,
      "属": 1918,
      "屠": 1919,
      "屡": 1920,
      "層": 1921,
      "履": 1922,
      "屯": 1923,
      "山": 1924,
      "屹": 1925,
      "屿": 1926,
      "岁": 1927,
      "岂": 1928,
      "岌": 1929,
      "岐": 1930,
      "岑": 1931,
      "岔": 1932,
      "岖": 1933,
      "岗": 1934,
      "岚": 1935,
      "岛": 1936,
      "岡": 1937,
      "岩": 1938,
      "岬": 1939,
      "岭": 1940,
      "岱": 1941,
      "岳": 1942,
      "岷": 1943,
      "岸": 1944,
      "峙": 1945,
      "峠": 1946,
      "峡": 1947,
      "峥": 1948,
      "峦": 1949,
      "峭": 1950,
      "峰": 1951,
      "島": 1952,
      "峻": 1953,
      "崇": 1954,
      "崎": 1955,
      "崑": 1956,
      "崔": 1957,
      "崖": 1958,
      "崗": 1959,
      "崙": 1960,
      "崛": 1961,
      "崢": 1962,
      "崩": 1963,
      "崭": 1964,
      "崴": 1965,
      "崽": 1966,
      "嵌": 1967,
      "嵐": 1968,
      "嵘": 1969,
      "嵚": 1970,
      "嵩": 1971,
      "嶋": 1972,
      "嶺": 1973,
      "嶼": 1974,
      "巅": 1975,
      "巍": 1976,
      "川": 1977,
      "州": 1978,
      "巡": 1979,
      "巢": 1980,
      "巣": 1981,
      "工": 1982,
      "左": 1983,
      "巧": 1984,
      "巨": 1985,
      "巩": 1986,
      "巫": 1987,
      "差": 1988,
      "己": 1989,
      "已": 1990,
      "巴": 1991,
      "巷": 1992,
      "巻": 1993,
      "巾": 1994,
      "币": 1995,
      "市": 1996,
      "布": 1997,
      "帅": 1998,
      "帆": 1999,
      "师": 2000,
      "希": 2001,
      "帐": 2002,
      "帕": 2003,
      "帖": 2004,
      "帘": 2005,
      "帚": 2006,
      "帜": 2007,
      "帝": 2008,
      "帥": 2009,
      "带": 2010,
      "帧": 2011,
      "師": 2012,
      "席": 2013,
      "帮": 2014,
      "帯": 2015,
      "帰": 2016,
      "帳": 2017,
      "帶": 2018,
      "帷": 2019,
      "常": 2020,
      "帽": 2021,
      "幂": 2022,
      "幅": 2023,
      "幌": 2024,
      "幕": 2025,
      "幣": 2026,
      "干": 2027,
      "平": 2028,
      "年": 2029,
      "并": 2030,
      "幸": 2031,
      "幹": 2032,
      "幻": 2033,
      "幼": 2034,
      "幽": 2035,
      "幾": 2036,
      "广": 2037,
      "庁": 2038,
      "広": 2039,
      "庄": 2040,
      "庆": 2041,
      "庇": 2042,
      "床": 2043,
      "序": 2044,
      "库": 2045,
      "应": 2046,
      "底": 2047,
      "店": 2048,
      "庙": 2049,
      "庚": 2050,
      "府": 2051,
      "庞": 2052,
      "废": 2053,
      "度": 2054,
      "座": 2055,
      "庫": 2056,
      "庭": 2057,
      "庶": 2058,
      "康": 2059,
      "庸": 2060,
      "廃": 2061,
      "廈": 2062,
      "廉": 2063,
      "廊": 2064,
      "廖": 2065,
      "延": 2066,
      "廷": 2067,
      "建": 2068,
      "廻": 2069,
      "开": 2070,
      "弁": 2071,
      "异": 2072,
      "弃": 2073,
      "弄": 2074,
      "弊": 2075,
      "弋": 2076,
      "式": 2077,
      "弓": 2078,
      "弔": 2079,
      "引": 2080,
      "弗": 2081,
      "弘": 2082,
      "弛": 2083,
      "弟": 2084,
      "张": 2085,
      "弥": 2086,
      "弦": 2087,
      "弧": 2088,
      "弯": 2089,
      "弱": 2090,
      "張": 2091,
      "強": 2092,
      "弹": 2093,
      "强": 2094,
      "弾": 2095,
      "彊": 2096,
      "归": 2097,
      "当": 2098,
      "录": 2099,
      "彗": 2100,
      "形": 2101,
      "彤": 2102,
      "彦": 2103,
      "彧": 2104,
      "彩": 2105,
      "彪": 2106,
      "彫": 2107,
      "彬": 2108,
      "彭": 2109,
      "彰": 2110,
      "影": 2111,
      "彷": 2112,
      "役": 2113,
      "彻": 2114,
      "彼": 2115,
      "彿": 2116,
      "往": 2117,
      "征": 2118,
      "径": 2119,
      "待": 2120,
      "很": 2121,
      "律": 2122,
      "後": 2123,
      "徐": 2124,
      "徒": 2125,
      "従": 2126,
      "徕": 2127,
      "得": 2128,
      "徙": 2129,
      "御": 2130,
      "徨": 2131,
      "復": 2132,
      "循": 2133,
      "微": 2134,
      "徳": 2135,
      "徴": 2136,
      "德": 2137,
      "徹": 2138,
      "徽": 2139,
      "心": 2140,
      "必": 2141,
      "忆": 2142,
      "忌": 2143,
      "忍": 2144,
      "忏": 2145,
      "忒": 2146,
      "志": 2147,
      "忘": 2148,
      "忙": 2149,
      "応": 2150,
      "忠": 2151,
      "忡": 2152,
      "忧": 2153,
      "快": 2154,
      "念": 2155,
      "忽": 2156,
      "怀": 2157,
      "态": 2158,
      "怎": 2159,
      "怒": 2160,
      "怕": 2161,
      "怖": 2162,
      "怜": 2163,
      "思": 2164,
      "怠": 2165,
      "怡": 2166,
      "急": 2167,
      "怦": 2168,
      "性": 2169,
      "怨": 2170,
      "怪": 2171,
      "怯": 2172,
      "总": 2173,
      "恋": 2174,
      "恐": 2175,
      "恒": 2176,
      "恕": 2177,
      "恢": 2178,
      "恣": 2179,
      "恤": 2180,
      "恥": 2181,
      "恨": 2182,
      "恩": 2183,
      "恪": 2184,
      "恭": 2185,
      "息": 2186,
      "恰": 2187,
      "恳": 2188,
      "恵": 2189,
      "恶": 2190,
      "恺": 2191,
      "恼": 2192,
      "悄": 2193,
      "悉": 2194,
      "悍": 2195,
      "悔": 2196,
      "悖": 2197,
      "悚": 2198,
      "悟": 2199,
      "悠": 2200,
      "患": 2201,
      "悦": 2202,
      "您": 2203,
      "悩": 2204,
      "悪": 2205,
      "悬": 2206,
      "悯": 2207,
      "悲": 2208,
      "悸": 2209,
      "悼": 2210,
      "情": 2211,
      "惇": 2212,
      "惊": 2213,
      "惋": 2214,
      "惑": 2215,
      "惕": 2216,
      "惚": 2217,
      "惜": 2218,
      "惠": 2219,
      "惣": 2220,
      "惧": 2221,
      "惨": 2222,
      "惩": 2223,
      "惫": 2224,
      "惭": 2225,
      "惯": 2226,
      "惰": 2227,
      "想": 2228,
      "惹": 2229,
      "愁": 2230,
      "愈": 2231,
      "愉": 2232,
      "意": 2233,
      "愚": 2234,
      "愛": 2235,
      "感": 2236,
      "愣": 2237,
      "愤": 2238,
      "愧": 2239,
      "愷": 2240,
      "愿": 2241,
      "慈": 2242,
      "態": 2243,
      "慌": 2244,
      "慎": 2245,
      "慑": 2246,
      "慕": 2247,
      "慜": 2248,
      "慢": 2249,
      "慣": 2250,
      "慧": 2251,
      "慨": 2252,
      "慮": 2253,
      "慰": 2254,
      "慶": 2255,
      "慷": 2256,
      "憂": 2257,
      "憊": 2258,
      "憋": 2259,
      "憎": 2260,
      "憑": 2261,
      "憚": 2262,
      "憧": 2263,
      "憨": 2264,
      "憩": 2265,
      "憬": 2266,
      "憲": 2267,
      "憶": 2268,
      "憾": 2269,
      "懂": 2270,
      "懇": 2271,
      "懈": 2272,
      "應": 2273,
      "懊": 2274,
      "懋": 2275,
      "懐": 2276,
      "懒": 2277,
      "懦": 2278,
      "懲": 2279,
      "懸": 2280,
      "懿": 2281,
      "戈": 2282,
      "戎": 2283,
      "戏": 2284,
      "成": 2285,
      "我": 2286,
      "戒": 2287,
      "或": 2288,
      "战": 2289,
      "戚": 2290,
      "戛": 2291,
      "戟": 2292,
      "戦": 2293,
      "戩": 2294,
      "截": 2295,
      "戬": 2296,
      "戮": 2297,
      "戯": 2298,
      "戲": 2299,
      "戴": 2300,
      "户": 2301,
      "戸": 2302,
      "戻": 2303,
      "房": 2304,
      "所": 2305,
      "扁": 2306,
      "扇": 2307,
      "扉": 2308,
      "手": 2309,
      "才": 2310,
      "扎": 2311,
      "扑": 2312,
      "扒": 2313,
      "打": 2314,
      "扔": 2315,
      "払": 2316,
      "托": 2317,
      "扛": 2318,
      "扣": 2319,
      "执": 2320,
      "扩": 2321,
      "扪": 2322,
      "扫": 2323,
      "扬": 2324,
      "扭": 2325,
      "扮": 2326,
      "扯": 2327,
      "扰": 2328,
      "扱": 2329,
      "扳": 2330,
      "扶": 2331,
      "批": 2332,
      "扼": 2333,
      "找": 2334,
      "承": 2335,
      "技": 2336,
      "抄": 2337,
      "抉": 2338,
      "把": 2339,
      "抑": 2340,
      "抒": 2341,
      "抓": 2342,
      "投": 2343,
      "抖": 2344,
      "抗": 2345,
      "折": 2346,
      "抚": 2347,
      "抛": 2348,
      "抜": 2349,
      "択": 2350,
      "抠": 2351,
      "抢": 2352,
      "护": 2353,
      "报": 2354,
      "抨": 2355,
      "披": 2356,
      "抬": 2357,
      "抱": 2358,
      "抵": 2359,
      "抹": 2360,
      "押": 2361,
      "抽": 2362,
      "拄": 2363,
      "担": 2364,
      "拆": 2365,
      "拇": 2366,
      "拈": 2367,
      "拉": 2368,
      "拌": 2369,
      "拍": 2370,
      "拐": 2371,
      "拒": 2372,
      "拓": 2373,
      "拔": 2374,
      "拖": 2375,
      "拗": 2376,
      "拘": 2377,
      "拙": 2378,
      "招": 2379,
      "拜": 2380,
      "拝": 2381,
      "拟": 2382,
      "拠": 2383,
      "拡": 2384,
      "拢": 2385,
      "拣": 2386,
      "拥": 2387,
      "拦": 2388,
      "拧": 2389,
      "拨": 2390,
      "择": 2391,
      "括": 2392,
      "拭": 2393,
      "拮": 2394,
      "拯": 2395,
      "拱": 2396,
      "拳": 2397,
      "拴": 2398,
      "拶": 2399,
      "拷": 2400,
      "拼": 2401,
      "拾": 2402,
      "拿": 2403,
      "持": 2404,
      "挂": 2405,
      "指": 2406,
      "按": 2407,
      "挑": 2408,
      "挖": 2409,
      "挙": 2410,
      "挚": 2411,
      "挛": 2412,
      "挝": 2413,
      "挟": 2414,
      "挠": 2415,
      "挡": 2416,
      "挣": 2417,
      "挤": 2418,
      "挥": 2419,
      "挨": 2420,
      "挪": 2421,
      "挫": 2422,
      "振": 2423,
      "挺": 2424,
      "挽": 2425,
      "挿": 2426,
      "捂": 2427,
      "捆": 2428,
      "捉": 2429,
      "捍": 2430,
      "捏": 2431,
      "捐": 2432,
      "捕": 2433,
      "捗": 2434,
      "捜": 2435,
      "捞": 2436,
      "损": 2437,
      "捡": 2438,
      "换": 2439,
      "捣": 2440,
      "捧": 2441,
      "捨": 2442,
      "据": 2443,
      "捷": 2444,
      "捻": 2445,
      "掀": 2446,
      "掂": 2447,
      "掃": 2448,
      "授": 2449,
      "掉": 2450,
      "掌": 2451,
      "掏": 2452,
      "掐": 2453,
      "排": 2454,
      "掘": 2455,
      "掛": 2456,
      "掠": 2457,
      "採": 2458,
      "探": 2459,
      "接": 2460,
      "控": 2461,
      "推": 2462,
      "掩": 2463,
      "措": 2464,
      "掮": 2465,
      "掰": 2466,
      "掲": 2467,
      "掳": 2468,
      "掴": 2469,
      "掷": 2470,
      "掺": 2471,
      "掻": 2472,
      "揃": 2473,
      "揄": 2474,
      "揉": 2475,
      "揍": 2476,
      "描": 2477,
      "提": 2478,
      "插": 2479,
      "揚": 2480,
      "換": 2481,
      "握": 2482,
      "揣": 2483,
      "揪": 2484,
      "揭": 2485,
      "揮": 2486,
      "援": 2487,
      "揶": 2488,
      "揺": 2489,
      "揽": 2490,
      "搁": 2491,
      "搂": 2492,
      "搅": 2493,
      "損": 2494,
      "搏": 2495,
      "搐": 2496,
      "搓": 2497,
      "搜": 2498,
      "搞": 2499,
      "搡": 2500,
      "搪": 2501,
      "搬": 2502,
      "搭": 2503,
      "携": 2504,
      "搾": 2505,
      "摂": 2506,
      "摄": 2507,
      "摆": 2508,
      "摇": 2509,
      "摊": 2510,
      "摒": 2511,
      "摔": 2512,
      "摘": 2513,
      "摧": 2514,
      "摩": 2515,
      "摸": 2516,
      "撃": 2517,
      "撅": 2518,
      "撇": 2519,
      "撑": 2520,
      "撒": 2521,
      "撕": 2522,
      "撞": 2523,
      "撤": 2524,
      "撫": 2525,
      "播": 2526,
      "撮": 2527,
      "撰": 2528,
      "撲": 2529,
      "撼": 2530,
      "擁": 2531,
      "擂": 2532,
      "擅": 2533,
      "擊": 2534,
      "操": 2535,
      "擎": 2536,
      "擘": 2537,
      "擢": 2538,
      "擦": 2539,
      "擬": 2540,
      "擲": 2541,
      "擺": 2542,
      "攀": 2543,
      "攒": 2544,
      "攣": 2545,
      "攫": 2546,
      "攬": 2547,
      "支": 2548,
      "收": 2549,
      "攸": 2550,
      "改": 2551,
      "攻": 2552,
      "放": 2553,
      "政": 2554,
      "故": 2555,
      "效": 2556,
      "敌": 2557,
      "敏": 2558,
      "救": 2559,
      "敖": 2560,
      "敗": 2561,
      "教": 2562,
      "敞": 2563,
      "敢": 2564,
      "散": 2565,
      "敦": 2566,
      "敬": 2567,
      "数": 2568,
      "敲": 2569,
      "整": 2570,
      "敵": 2571,
      "敷": 2572,
      "數": 2573,
      "文": 2574,
      "斉": 2575,
      "斋": 2576,
      "斌": 2577,
      "斐": 2578,
      "斑": 2579,
      "斓": 2580,
      "斗": 2581,
      "料": 2582,
      "斛": 2583,
      "斜": 2584,
      "斤": 2585,
      "斥": 2586,
      "斧": 2587,
      "斩": 2588,
      "斬": 2589,
      "断": 2590,
      "斯": 2591,
      "新": 2592,
      "方": 2593,
      "於": 2594,
      "施": 2595,
      "旁": 2596,
      "旅": 2597,
      "旋": 2598,
      "族": 2599,
      "旗": 2600,
      "无": 2601,
      "既": 2602,
      "日": 2603,
      "旦": 2604,
      "旧": 2605,
      "旨": 2606,
      "早": 2607,
      "旬": 2608,
      "旭": 2609,
      "旮": 2610,
      "旯": 2611,
      "旱": 2612,
      "时": 2613,
      "旷": 2614,
      "旺": 2615,
      "昀": 2616,
      "昂": 2617,
      "昆": 2618,
      "昇": 2619,
      "昊": 2620,
      "昌": 2621,
      "明": 2622,
      "昏": 2623,
      "易": 2624,
      "昔": 2625,
      "昕": 2626,
      "昙": 2627,
      "星": 2628,
      "映": 2629,
      "春": 2630,
      "昧": 2631,
      "昨": 2632,
      "昭": 2633,
      "是": 2634,
      "昱": 2635,
      "昵": 2636,
      "昶": 2637,
      "昼": 2638,
      "显": 2639,
      "晁": 2640,
      "時": 2641,
      "晃": 2642,
      "晋": 2643,
      "晏": 2644,
      "晒": 2645,
      "晓": 2646,
      "晕": 2647,
      "晖": 2648,
      "晗": 2649,
      "晚": 2650,
      "晟": 2651,
      "晤": 2652,
      "晦": 2653,
      "晨": 2654,
      "晩": 2655,
      "普": 2656,
      "景": 2657,
      "晰": 2658,
      "晴": 2659,
      "晶": 2660,
      "智": 2661,
      "晾": 2662,
      "暁": 2663,
      "暂": 2664,
      "暇": 2665,
      "暉": 2666,
      "暑": 2667,
      "暖": 2668,
      "暗": 2669,
      "暢": 2670,
      "暦": 2671,
      "暧": 2672,
      "暨": 2673,
      "暫": 2674,
      "暮": 2675,
      "暴": 2676,
      "暻": 2677,
      "曇": 2678,
      "曉": 2679,
      "曖": 2680,
      "曙": 2681,
      "曜": 2682,
      "曝": 2683,
      "曦": 2684,
      "曲": 2685,
      "曳": 2686,
      "更": 2687,
      "書": 2688,
      "曹": 2689,
      "曼": 2690,
      "曽": 2691,
      "曾": 2692,
      "替": 2693,
      "最": 2694,
      "會": 2695,
      "月": 2696,
      "有": 2697,
      "朋": 2698,
      "服": 2699,
      "朔": 2700,
      "朗": 2701,
      "望": 2702,
      "朝": 2703,
      "期": 2704,
      "木": 2705,
      "未": 2706,
      "末": 2707,
      "本": 2708,
      "札": 2709,
      "术": 2710,
      "朱": 2711,
      "朴": 2712,
      "朵": 2713,
      "机": 2714,
      "朽": 2715,
      "杀": 2716,
      "杂": 2717,
      "权": 2718,
      "杆": 2719,
      "杉": 2720,
      "李": 2721,
      "杏": 2722,
      "材": 2723,
      "村": 2724,
      "杓": 2725,
      "杖": 2726,
      "杜": 2727,
      "杞": 2728,
      "束": 2729,
      "杠": 2730,
      "条": 2731,
      "来": 2732,
      "杨": 2733,
      "杭": 2734,
      "杯": 2735,
      "杰": 2736,
      "東": 2737,
      "杳": 2738,
      "杵": 2739,
      "松": 2740,
      "板": 2741,
      "极": 2742,
      "构": 2743,
      "枉": 2744,
      "析": 2745,
      "枕": 2746,
      "林": 2747,
      "枚": 2748,
      "果": 2749,
      "枝": 2750,
      "枠": 2751,
      "枢": 2752,
      "枣": 2753,
      "枪": 2754,
      "枫": 2755,
      "枭": 2756,
      "枯": 2757,
      "架": 2758,
      "枷": 2759,
      "枸": 2760,
      "柄": 2761,
      "柏": 2762,
      "某": 2763,
      "柑": 2764,
      "柒": 2765,
      "染": 2766,
      "柔": 2767,
      "柚": 2768,
      "柜": 2769,
      "柞": 2770,
      "柠": 2771,
      "查": 2772,
      "柩": 2773,
      "柬": 2774,
      "柯": 2775,
      "柱": 2776,
      "柳": 2777,
      "柴": 2778,
      "柵": 2779,
      "査": 2780,
      "柽": 2781,
      "柿": 2782,
      "栄": 2783,
      "栅": 2784,
      "标": 2785,
      "栋": 2786,
      "栏": 2787,
      "树": 2788,
      "栓": 2789,
      "栖": 2790,
      "栗": 2791,
      "校": 2792,
      "栢": 2793,
      "株": 2794,
      "样": 2795,
      "核": 2796,
      "根": 2797,
      "格": 2798,
      "栽": 2799,
      "栾": 2800,
      "桁": 2801,
      "桂": 2802,
      "桃": 2803,
      "桅": 2804,
      "框": 2805,
      "案": 2806,
      "桌": 2807,
      "桐": 2808,
      "桑": 2809,
      "桓": 2810,
      "桔": 2811,
      "桜": 2812,
      "档": 2813,
      "桥": 2814,
      "桨": 2815,
      "桩": 2816,
      "桶": 2817,
      "梁": 2818,
      "梅": 2819,
      "梓": 2820,
      "梗": 2821,
      "梢": 2822,
      "梦": 2823,
      "梧": 2824,
      "梨": 2825,
      "梭": 2826,
      "梯": 2827,
      "械": 2828,
      "梱": 2829,
      "梳": 2830,
      "梵": 2831,
      "检": 2832,
      "棄": 2833,
      "棉": 2834,
      "棋": 2835,
      "棍": 2836,
      "棒": 2837,
      "棕": 2838,
      "棘": 2839,
      "棚": 2840,
      "棟": 2841,
      "棠": 2842,
      "棣": 2843,
      "森": 2844,
      "棱": 2845,
      "棲": 2846,
      "棵": 2847,
      "棺": 2848,
      "椅": 2849,
      "椋": 2850,
      "植": 2851,
      "椎": 2852,
      "椒": 2853,
      "検": 2854,
      "椭": 2855,
      "椰": 2856,
      "椹": 2857,
      "楂": 2858,
      "楊": 2859,
      "楓": 2860,
      "楔": 2861,
      "楕": 2862,
      "楚": 2863,
      "楞": 2864,
      "楠": 2865,
      "業": 2866,
      "極": 2867,
      "楼": 2868,
      "楽": 2869,
      "概": 2870,
      "榄": 2871,
      "榈": 2872,
      "榔": 2873,
      "榕": 2874,
      "榜": 2875,
      "榨": 2876,
      "榭": 2877,
      "榮": 2878,
      "榴": 2879,
      "榻": 2880,
      "構": 2881,
      "槍": 2882,
      "槐": 2883,
      "様": 2884,
      "槛": 2885,
      "槟": 2886,
      "槽": 2887,
      "槿": 2888,
      "樂": 2889,
      "樊": 2890,
      "標": 2891,
      "樟": 2892,
      "模": 2893,
      "権": 2894,
      "横": 2895,
      "樱": 2896,
      "樵": 2897,
      "樹": 2898,
      "樽": 2899,
      "橄": 2900,
      "橇": 2901,
      "橋": 2902,
      "橘": 2903,
      "橙": 2904,
      "機": 2905,
      "橡": 2906,
      "橱": 2907,
      "檀": 2908,
      "檗": 2909,
      "檬": 2910,
      "檻": 2911,
      "櫛": 2912,
      "欄": 2913,
      "權": 2914,
      "欒": 2915,
      "欠": 2916,
      "次": 2917,
      "欢": 2918,
      "欣": 2919,
      "欧": 2920,
      "欲": 2921,
      "欺": 2922,
      "欽": 2923,
      "款": 2924,
      "歆": 2925,
      "歇": 2926,
      "歉": 2927,
      "歌": 2928,
      "歓": 2929,
      "止": 2930,
      "正": 2931,
      "此": 2932,
      "步": 2933,
      "武": 2934,
      "歧": 2935,
      "歩": 2936,
      "歪": 2937,
      "歯": 2938,
      "歳": 2939,
      "歴": 2940,
      "歷": 2941,
      "死": 2942,
      "殃": 2943,
      "殆": 2944,
      "殉": 2945,
      "殊": 2946,
      "残": 2947,
      "殖": 2948,
      "殡": 2949,
      "殴": 2950,
      "段": 2951,
      "殷": 2952,
      "殺": 2953,
      "殻": 2954,
      "殼": 2955,
      "殿": 2956,
      "毀": 2957,
      "毁": 2958,
      "毂": 2959,
      "毅": 2960,
      "毋": 2961,
      "母": 2962,
      "毎": 2963,
      "每": 2964,
      "毒": 2965,
      "毓": 2966,
      "比": 2967,
      "毕": 2968,
      "毙": 2969,
      "毛": 2970,
      "毫": 2971,
      "毯": 2972,
      "氏": 2973,
      "民": 2974,
      "氓": 2975,
      "气": 2976,
      "気": 2977,
      "氛": 2978,
      "氟": 2979,
      "氢": 2980,
      "氣": 2981,
      "氧": 2982,
      "氨": 2983,
      "氪": 2984,
      "氮": 2985,
      "氯": 2986,
      "水": 2987,
      "氷": 2988,
      "永": 2989,
      "汀": 2990,
      "汁": 2991,
      "求": 2992,
      "汇": 2993,
      "汉": 2994,
      "汎": 2995,
      "汐": 2996,
      "汗": 2997,
      "汚": 2998,
      "汛": 2999,
      "汝": 3000,
      "汞": 3001,
      "江": 3002,
      "池": 3003,
      "污": 3004,
      "汤": 3005,
      "汪": 3006,
      "汰": 3007,
      "汲": 3008,
      "汶": 3009,
      "決": 3010,
      "汽": 3011,
      "沁": 3012,
      "沃": 3013,
      "沅": 3014,
      "沈": 3015,
      "沉": 3016,
      "沌": 3017,
      "沐": 3018,
      "沒": 3019,
      "沓": 3020,
      "沖": 3021,
      "沙": 3022,
      "沛": 3023,
      "沟": 3024,
      "没": 3025,
      "沢": 3026,
      "沣": 3027,
      "沥": 3028,
      "沦": 3029,
      "沧": 3030,
      "沫": 3031,
      "沮": 3032,
      "河": 3033,
      "沸": 3034,
      "油": 3035,
      "治": 3036,
      "沼": 3037,
      "沽": 3038,
      "沾": 3039,
      "沿": 3040,
      "況": 3041,
      "泄": 3042,
      "泉": 3043,
      "泊": 3044,
      "泌": 3045,
      "泓": 3046,
      "法": 3047,
      "泛": 3048,
      "泞": 3049,
      "泡": 3050,
      "波": 3051,
      "泣": 3052,
      "泥": 3053,
      "注": 3054,
      "泪": 3055,
      "泫": 3056,
      "泰": 3057,
      "泳": 3058,
      "泵": 3059,
      "泸": 3060,
      "泻": 3061,
      "泼": 3062,
      "泽": 3063,
      "洁": 3064,
      "洋": 3065,
      "洒": 3066,
      "洗": 3067,
      "洙": 3068,
      "洛": 3069,
      "洞": 3070,
      "津": 3071,
      "洩": 3072,
      "洪": 3073,
      "洲": 3074,
      "洵": 3075,
      "活": 3076,
      "洽": 3077,
      "派": 3078,
      "流": 3079,
      "浃": 3080,
      "浄": 3081,
      "浅": 3082,
      "浆": 3083,
      "浇": 3084,
      "浊": 3085,
      "测": 3086,
      "济": 3087,
      "浏": 3088,
      "浑": 3089,
      "浒": 3090,
      "浓": 3091,
      "浙": 3092,
      "浚": 3093,
      "浜": 3094,
      "浣": 3095,
      "浦": 3096,
      "浩": 3097,
      "浪": 3098,
      "浮": 3099,
      "浴": 3100,
      "海": 3101,
      "浸": 3102,
      "涂": 3103,
      "涅": 3104,
      "消": 3105,
      "涉": 3106,
      "涌": 3107,
      "涎": 3108,
      "涕": 3109,
      "涙": 3110,
      "涛": 3111,
      "涜": 3112,
      "涡": 3113,
      "涣": 3114,
      "涤": 3115,
      "润": 3116,
      "涨": 3117,
      "涩": 3118,
      "涯": 3119,
      "液": 3120,
      "涵": 3121,
      "涸": 3122,
      "涼": 3123,
      "淀": 3124,
      "淄": 3125,
      "淅": 3126,
      "淆": 3127,
      "淇": 3128,
      "淋": 3129,
      "淌": 3130,
      "淑": 3131,
      "淘": 3132,
      "淡": 3133,
      "淤": 3134,
      "淫": 3135,
      "淮": 3136,
      "深": 3137,
      "淳": 3138,
      "淵": 3139,
      "混": 3140,
      "淹": 3141,
      "添": 3142,
      "淼": 3143,
      "清": 3144,
      "渇": 3145,
      "済": 3146,
      "渉": 3147,
      "渊": 3148,
      "渋": 3149,
      "渍": 3150,
      "渎": 3151,
      "渐": 3152,
      "渓": 3153,
      "渔": 3154,
      "渗": 3155,
      "減": 3156,
      "渠": 3157,
      "渡": 3158,
      "渣": 3159,
      "渤": 3160,
      "渥": 3161,
      "渦": 3162,
      "温": 3163,
      "測": 3164,
      "港": 3165,
      "渲": 3166,
      "渴": 3167,
      "游": 3168,
      "渺": 3169,
      "湃": 3170,
      "湄": 3171,
      "湍": 3172,
      "湖": 3173,
      "湘": 3174,
      "湛": 3175,
      "湧": 3176,
      "湯": 3177,
      "湾": 3178,
      "湿": 3179,
      "満": 3180,
      "溃": 3181,
      "溅": 3182,
      "溉": 3183,
      "源": 3184,
      "準": 3185,
      "溜": 3186,
      "溝": 3187,
      "溢": 3188,
      "溪": 3189,
      "溫": 3190,
      "溯": 3191,
      "溶": 3192,
      "溺": 3193,
      "滄": 3194,
      "滅": 3195,
      "滋": 3196,
      "滑": 3197,
      "滔": 3198,
      "滕": 3199,
      "滚": 3200,
      "滝": 3201,
      "滞": 3202,
      "满": 3203,
      "滤": 3204,
      "滥": 3205,
      "滨": 3206,
      "滩": 3207,
      "滴": 3208,
      "滸": 3209,
      "滾": 3210,
      "漁": 3211,
      "漂": 3212,
      "漆": 3213,
      "漏": 3214,
      "漑": 3215,
      "漓": 3216,
      "演": 3217,
      "漠": 3218,
      "漢": 3219,
      "漩": 3220,
      "漪": 3221,
      "漫": 3222,
      "漬": 3223,
      "漱": 3224,
      "漸": 3225,
      "漾": 3226,
      "漿": 3227,
      "潇": 3228,
      "潔": 3229,
      "潘": 3230,
      "潜": 3231,
      "潟": 3232,
      "潤": 3233,
      "潦": 3234,
      "潭": 3235,
      "潮": 3236,
      "潰": 3237,
      "潴": 3238,
      "澄": 3239,
      "澈": 3240,
      "澎": 3241,
      "澜": 3242,
      "澡": 3243,
      "澤": 3244,
      "澳": 3245,
      "激": 3246,
      "濁": 3247,
      "濃": 3248,
      "濒": 3249,
      "濛": 3250,
      "濡": 3251,
      "濤": 3252,
      "濯": 3253,
      "瀉": 3254,
      "瀋": 3255,
      "瀑": 3256,
      "瀕": 3257,
      "瀘": 3258,
      "瀚": 3259,
      "瀟": 3260,
      "瀬": 3261,
      "瀾": 3262,
      "灌": 3263,
      "灏": 3264,
      "灘": 3265,
      "火": 3266,
      "灭": 3267,
      "灯": 3268,
      "灰": 3269,
      "灵": 3270,
      "灶": 3271,
      "灼": 3272,
      "災": 3273,
      "灾": 3274,
      "灿": 3275,
      "炅": 3276,
      "炉": 3277,
      "炊": 3278,
      "炎": 3279,
      "炒": 3280,
      "炕": 3281,
      "炖": 3282,
      "炙": 3283,
      "炜": 3284,
      "炫": 3285,
      "炬": 3286,
      "炭": 3287,
      "炮": 3288,
      "炯": 3289,
      "炳": 3290,
      "炸": 3291,
      "点": 3292,
      "為": 3293,
      "炼": 3294,
      "炽": 3295,
      "烁": 3296,
      "烂": 3297,
      "烃": 3298,
      "烈": 3299,
      "烊": 3300,
      "烏": 3301,
      "烘": 3302,
      "烛": 3303,
      "烟": 3304,
      "烤": 3305,
      "烦": 3306,
      "烧": 3307,
      "烨": 3308,
      "烫": 3309,
      "烬": 3310,
      "热": 3311,
      "烯": 3312,
      "烷": 3313,
      "烹": 3314,
      "焉": 3315,
      "焊": 3316,
      "焕": 3317,
      "焚": 3318,
      "無": 3319,
      "焦": 3320,
      "焯": 3321,
      "焰": 3322,
      "然": 3323,
      "焼": 3324,
      "煉": 3325,
      "煌": 3326,
      "煎": 3327,
      "煕": 3328,
      "煙": 3329,
      "煞": 3330,
      "煤": 3331,
      "煥": 3332,
      "煦": 3333,
      "照": 3334,
      "煩": 3335,
      "煮": 3336,
      "煲": 3337,
      "煸": 3338,
      "煽": 3339,
      "熄": 3340,
      "熊": 3341,
      "熏": 3342,
      "熔": 3343,
      "熙": 3344,
      "熟": 3345,
      "熠": 3346,
      "熨": 3347,
      "熬": 3348,
      "熱": 3349,
      "熵": 3350,
      "熹": 3351,
      "熾": 3352,
      "燃": 3353,
      "燊": 3354,
      "燎": 3355,
      "燕": 3356,
      "燙": 3357,
      "燥": 3358,
      "燮": 3359,
      "燼": 3360,
      "爆": 3361,
      "爛": 3362,
      "爪": 3363,
      "爬": 3364,
      "爱": 3365,
      "爵": 3366,
      "父": 3367,
      "爷": 3368,
      "爸": 3369,
      "爹": 3370,
      "爽": 3371,
      "爾": 3372,
      "片": 3373,
      "版": 3374,
      "牌": 3375,
      "牒": 3376,
      "牙": 3377,
      "牛": 3378,
      "牟": 3379,
      "牡": 3380,
      "牢": 3381,
      "牦": 3382,
      "牧": 3383,
      "物": 3384,
      "牲": 3385,
      "牵": 3386,
      "特": 3387,
      "牺": 3388,
      "牽": 3389,
      "犀": 3390,
      "犁": 3391,
      "犄": 3392,
      "犊": 3393,
      "犠": 3394,
      "犬": 3395,
      "犯": 3396,
      "状": 3397,
      "犸": 3398,
      "犹": 3399,
      "狂": 3400,
      "狄": 3401,
      "狈": 3402,
      "狐": 3403,
      "狒": 3404,
      "狗": 3405,
      "狙": 3406,
      "狠": 3407,
      "狡": 3408,
      "狩": 3409,
      "独": 3410,
      "狭": 3411,
      "狮": 3412,
      "狱": 3413,
      "狸": 3414,
      "狼": 3415,
      "猁": 3416,
      "猎": 3417,
      "猕": 3418,
      "猖": 3419,
      "猗": 3420,
      "猛": 3421,
      "猜": 3422,
      "猝": 3423,
      "猞": 3424,
      "猟": 3425,
      "猥": 3426,
      "猩": 3427,
      "猪": 3428,
      "猫": 3429,
      "猬": 3430,
      "献": 3431,
      "猴": 3432,
      "猶": 3433,
      "猾": 3434,
      "猿": 3435,
      "獄": 3436,
      "獅": 3437,
      "獎": 3438,
      "獗": 3439,
      "獣": 3440,
      "獭": 3441,
      "獰": 3442,
      "獲": 3443,
      "獾": 3444,
      "玄": 3445,
      "率": 3446,
      "玉": 3447,
      "王": 3448,
      "玑": 3449,
      "玖": 3450,
      "玛": 3451,
      "玟": 3452,
      "玥": 3453,
      "玩": 3454,
      "玫": 3455,
      "玮": 3456,
      "环": 3457,
      "现": 3458,
      "玲": 3459,
      "玷": 3460,
      "玺": 3461,
      "玻": 3462,
      "珀": 3463,
      "珂": 3464,
      "珅": 3465,
      "珈": 3466,
      "珉": 3467,
      "珊": 3468,
      "珍": 3469,
      "珑": 3470,
      "珞": 3471,
      "珠": 3472,
      "班": 3473,
      "現": 3474,
      "球": 3475,
      "琅": 3476,
      "理": 3477,
      "琉": 3478,
      "琊": 3479,
      "琍": 3480,
      "琐": 3481,
      "琚": 3482,
      "琥": 3483,
      "琦": 3484,
      "琨": 3485,
      "琪": 3486,
      "琲": 3487,
      "琳": 3488,
      "琴": 3489,
      "琼": 3490,
      "瑕": 3491,
      "瑙": 3492,
      "瑚": 3493,
      "瑛": 3494,
      "瑜": 3495,
      "瑞": 3496,
      "瑟": 3497,
      "瑩": 3498,
      "瑪": 3499,
      "瑰": 3500,
      "瑶": 3501,
      "璀": 3502,
      "璃": 3503,
      "璇": 3504,
      "璋": 3505,
      "璐": 3506,
      "璞": 3507,
      "璧": 3508,
      "璨": 3509,
      "環": 3510,
      "璽": 3511,
      "瓊": 3512,
      "瓏": 3513,
      "瓜": 3514,
      "瓢": 3515,
      "瓣": 3516,
      "瓦": 3517,
      "瓴": 3518,
      "瓶": 3519,
      "瓷": 3520,
      "甄": 3521,
      "甘": 3522,
      "甚": 3523,
      "甜": 3524,
      "生": 3525,
      "產": 3526,
      "産": 3527,
      "甥": 3528,
      "用": 3529,
      "甩": 3530,
      "甪": 3531,
      "甫": 3532,
      "甬": 3533,
      "甯": 3534,
      "田": 3535,
      "由": 3536,
      "甲": 3537,
      "申": 3538,
      "电": 3539,
      "男": 3540,
      "甸": 3541,
      "町": 3542,
      "画": 3543,
      "畅": 3544,
      "界": 3545,
      "畏": 3546,
      "畑": 3547,
      "畔": 3548,
      "留": 3549,
      "畜": 3550,
      "畝": 3551,
      "畢": 3552,
      "略": 3553,
      "番": 3554,
      "異": 3555,
      "畳": 3556,
      "畴": 3557,
      "畸": 3558,
      "疆": 3559,
      "疎": 3560,
      "疏": 3561,
      "疑": 3562,
      "疖": 3563,
      "疗": 3564,
      "疙": 3565,
      "疝": 3566,
      "疟": 3567,
      "疡": 3568,
      "疣": 3569,
      "疤": 3570,
      "疥": 3571,
      "疫": 3572,
      "疮": 3573,
      "疯": 3574,
      "疱": 3575,
      "疲": 3576,
      "疳": 3577,
      "疵": 3578,
      "疸": 3579,
      "疹": 3580,
      "疼": 3581,
      "疾": 3582,
      "痂": 3583,
      "病": 3584,
      "症": 3585,
      "痉": 3586,
      "痊": 3587,
      "痒": 3588,
      "痔": 3589,
      "痕": 3590,
      "痘": 3591,
      "痙": 3592,
      "痛": 3593,
      "痞": 3594,
      "痢": 3595,
      "痣": 3596,
      "痤": 3597,
      "痩": 3598,
      "痪": 3599,
      "痫": 3600,
      "痰": 3601,
      "痴": 3602,
      "痹": 3603,
      "痺": 3604,
      "痿": 3605,
      "瘀": 3606,
      "瘋": 3607,
      "瘍": 3608,
      "瘘": 3609,
      "瘙": 3610,
      "瘟": 3611,
      "瘠": 3612,
      "瘡": 3613,
      "瘤": 3614,
      "瘦": 3615,
      "瘩": 3616,
      "瘪": 3617,
      "瘫": 3618,
      "瘸": 3619,
      "瘻": 3620,
      "瘾": 3621,
      "療": 3622,
      "癇": 3623,
      "癌": 3624,
      "癒": 3625,
      "癖": 3626,
      "癜": 3627,
      "癞": 3628,
      "癣": 3629,
      "癫": 3630,
      "癬": 3631,
      "癮": 3632,
      "癲": 3633,
      "発": 3634,
      "登": 3635,
      "發": 3636,
      "白": 3637,
      "百": 3638,
      "皂": 3639,
      "的": 3640,
      "皆": 3641,
      "皇": 3642,
      "皑": 3643,
      "皓": 3644,
      "皙": 3645,
      "皮": 3646,
      "皱": 3647,
      "皲": 3648,
      "皿": 3649,
      "盂": 3650,
      "盃": 3651,
      "盆": 3652,
      "盈": 3653,
      "益": 3654,
      "盎": 3655,
      "盏": 3656,
      "盐": 3657,
      "监": 3658,
      "盒": 3659,
      "盔": 3660,
      "盖": 3661,
      "盗": 3662,
      "盘": 3663,
      "盛": 3664,
      "盟": 3665,
      "監": 3666,
      "盤": 3667,
      "盧": 3668,
      "盪": 3669,
      "目": 3670,
      "盯": 3671,
      "盲": 3672,
      "直": 3673,
      "相": 3674,
      "盹": 3675,
      "盼": 3676,
      "盾": 3677,
      "省": 3678,
      "眉": 3679,
      "看": 3680,
      "県": 3681,
      "真": 3682,
      "眠": 3683,
      "眨": 3684,
      "眩": 3685,
      "眶": 3686,
      "眷": 3687,
      "眸": 3688,
      "眺": 3689,
      "眼": 3690,
      "眾": 3691,
      "着": 3692,
      "睁": 3693,
      "睐": 3694,
      "睑": 3695,
      "睒": 3696,
      "睛": 3697,
      "睡": 3698,
      "督": 3699,
      "睦": 3700,
      "睫": 3701,
      "睬": 3702,
      "睹": 3703,
      "睾": 3704,
      "睿": 3705,
      "瞄": 3706,
      "瞌": 3707,
      "瞎": 3708,
      "瞑": 3709,
      "瞒": 3710,
      "瞞": 3711,
      "瞠": 3712,
      "瞥": 3713,
      "瞧": 3714,
      "瞩": 3715,
      "瞪": 3716,
      "瞬": 3717,
      "瞭": 3718,
      "瞰": 3719,
      "瞳": 3720,
      "瞻": 3721,
      "瞼": 3722,
      "矗": 3723,
      "矛": 3724,
      "矢": 3725,
      "知": 3726,
      "矩": 3727,
      "矫": 3728,
      "短": 3729,
      "矮": 3730,
      "矯": 3731,
      "石": 3732,
      "矶": 3733,
      "矾": 3734,
      "矿": 3735,
      "码": 3736,
      "砂": 3737,
      "砌": 3738,
      "砍": 3739,
      "砒": 3740,
      "研": 3741,
      "砕": 3742,
      "砖": 3743,
      "砚": 3744,
      "砥": 3745,
      "砦": 3746,
      "砰": 3747,
      "砲": 3748,
      "破": 3749,
      "砸": 3750,
      "砺": 3751,
      "础": 3752,
      "硅": 3753,
      "硒": 3754,
      "硕": 3755,
      "硝": 3756,
      "硫": 3757,
      "硬": 3758,
      "确": 3759,
      "硯": 3760,
      "碁": 3761,
      "碇": 3762,
      "碌": 3763,
      "碍": 3764,
      "碎": 3765,
      "碑": 3766,
      "碗": 3767,
      "碘": 3768,
      "碟": 3769,
      "碧": 3770,
      "碰": 3771,
      "碱": 3772,
      "碳": 3773,
      "確": 3774,
      "碾": 3775,
      "磁": 3776,
      "磅": 3777,
      "磊": 3778,
      "磋": 3779,
      "磐": 3780,
      "磚": 3781,
      "磨": 3782,
      "磯": 3783,
      "磷": 3784,
      "磺": 3785,
      "礁": 3786,
      "礎": 3787,
      "礴": 3788,
      "示": 3789,
      "礼": 3790,
      "社": 3791,
      "祁": 3792,
      "祈": 3793,
      "祉": 3794,
      "祎": 3795,
      "祓": 3796,
      "祖": 3797,
      "祚": 3798,
      "祛": 3799,
      "祝": 3800,
      "神": 3801,
      "祢": 3802,
      "祥": 3803,
      "票": 3804,
      "祭": 3805,
      "祷": 3806,
      "祸": 3807,
      "祺": 3808,
      "禀": 3809,
      "禁": 3810,
      "禄": 3811,
      "禅": 3812,
      "福": 3813,
      "禕": 3814,
      "禧": 3815,
      "禮": 3816,
      "禰": 3817,
      "禹": 3818,
      "离": 3819,
      "禽": 3820,
      "禿": 3821,
      "秀": 3822,
      "私": 3823,
      "秃": 3824,
      "秆": 3825,
      "秉": 3826,
      "秋": 3827,
      "种": 3828,
      "科": 3829,
      "秒": 3830,
      "秘": 3831,
      "租": 3832,
      "秤": 3833,
      "秦": 3834,
      "秩": 3835,
      "积": 3836,
      "称": 3837,
      "秸": 3838,
      "移": 3839,
      "秽": 3840,
      "稀": 3841,
      "程": 3842,
      "稍": 3843,
      "税": 3844,
      "稔": 3845,
      "稚": 3846,
      "稠": 3847,
      "稣": 3848,
      "種": 3849,
      "稱": 3850,
      "稲": 3851,
      "稳": 3852,
      "稻": 3853,
      "稼": 3854,
      "稽": 3855,
      "稿": 3856,
      "穀": 3857,
      "穂": 3858,
      "穆": 3859,
      "積": 3860,
      "穎": 3861,
      "穏": 3862,
      "穗": 3863,
      "穢": 3864,
      "穫": 3865,
      "穴": 3866,
      "究": 3867,
      "穷": 3868,
      "穹": 3869,
      "空": 3870,
      "穿": 3871,
      "突": 3872,
      "窃": 3873,
      "窄": 3874,
      "窈": 3875,
      "窍": 3876,
      "窒": 3877,
      "窓": 3878,
      "窕": 3879,
      "窗": 3880,
      "窘": 3881,
      "窝": 3882,
      "窟": 3883,
      "窥": 3884,
      "窦": 3885,
      "窩": 3886,
      "窪": 3887,
      "窮": 3888,
      "窯": 3889,
      "竈": 3890,
      "立": 3891,
      "竖": 3892,
      "站": 3893,
      "竜": 3894,
      "竞": 3895,
      "竟": 3896,
      "章": 3897,
      "竣": 3898,
      "童": 3899,
      "竭": 3900,
      "端": 3901,
      "競": 3902,
      "竹": 3903,
      "竿": 3904,
      "笋": 3905,
      "笑": 3906,
      "笔": 3907,
      "笛": 3908,
      "笠": 3909,
      "符": 3910,
      "笨": 3911,
      "第": 3912,
      "笼": 3913,
      "筆": 3914,
      "等": 3915,
      "筋": 3916,
      "筍": 3917,
      "筐": 3918,
      "筑": 3919,
      "筒": 3920,
      "答": 3921,
      "策": 3922,
      "筛": 3923,
      "筝": 3924,
      "筷": 3925,
      "筹": 3926,
      "签": 3927,
      "简": 3928,
      "箇": 3929,
      "箋": 3930,
      "箍": 3931,
      "箔": 3932,
      "算": 3933,
      "管": 3934,
      "箭": 3935,
      "箱": 3936,
      "箴": 3937,
      "箸": 3938,
      "節": 3939,
      "範": 3940,
      "篇": 3941,
      "築": 3942,
      "篝": 3943,
      "篡": 3944,
      "篤": 3945,
      "篩": 3946,
      "篮": 3947,
      "篷": 3948,
      "簡": 3949,
      "簸": 3950,
      "簽": 3951,
      "簿": 3952,
      "籁": 3953,
      "籍": 3954,
      "籠": 3955,
      "米": 3956,
      "类": 3957,
      "籽": 3958,
      "粉": 3959,
      "粋": 3960,
      "粑": 3961,
      "粒": 3962,
      "粗": 3963,
      "粘": 3964,
      "粛": 3965,
      "粥": 3966,
      "粧": 3967,
      "粪": 3968,
      "粮": 3969,
      "粱": 3970,
      "粹": 3971,
      "粽": 3972,
      "精": 3973,
      "糊": 3974,
      "糕": 3975,
      "糖": 3976,
      "糗": 3977,
      "糙": 3978,
      "糜": 3979,
      "糞": 3980,
      "糟": 3981,
      "糧": 3982,
      "糯": 3983,
      "糸": 3984,
      "系": 3985,
      "紀": 3986,
      "約": 3987,
      "紅": 3988,
      "紆": 3989,
      "紊": 3990,
      "紋": 3991,
      "納": 3992,
      "紐": 3993,
      "純": 3994,
      "紙": 3995,
      "級": 3996,
      "紛": 3997,
      "素": 3998,
      "索": 3999,
      "紧": 4000,
      "紫": 4001,
      "紮": 4002,
      "累": 4003,
      "細": 4004,
      "紳": 4005,
      "紹": 4006,
      "終": 4007,
      "組": 4008,
      "絆": 4009,
      "経": 4010,
      "結": 4011,
      "絕": 4012,
      "絞": 4013,
      "絡": 4014,
      "給": 4015,
      "絨": 4016,
      "絮": 4017,
      "統": 4018,
      "絲": 4019,
      "絵": 4020,
      "絶": 4021,
      "經": 4022,
      "継": 4023,
      "続": 4024,
      "綠": 4025,
      "維": 4026,
      "綱": 4027,
      "網": 4028,
      "綴": 4029,
      "綺": 4030,
      "綻": 4031,
      "綿": 4032,
      "緊": 4033,
      "緋": 4034,
      "総": 4035,
      "緑": 4036,
      "緒": 4037,
      "線": 4038,
      "締": 4039,
      "編": 4040,
      "緩": 4041,
      "緯": 4042,
      "練": 4043,
      "縁": 4044,
      "縄": 4045,
      "縊": 4046,
      "縛": 4047,
      "縞": 4048,
      "縣": 4049,
      "縦": 4050,
      "縫": 4051,
      "縮": 4052,
      "總": 4053,
      "績": 4054,
      "繁": 4055,
      "繊": 4056,
      "繋": 4057,
      "繍": 4058,
      "織": 4059,
      "繕": 4060,
      "繭": 4061,
      "繰": 4062,
      "繹": 4063,
      "纂": 4064,
      "纠": 4065,
      "红": 4066,
      "纤": 4067,
      "约": 4068,
      "级": 4069,
      "纨": 4070,
      "纪": 4071,
      "纫": 4072,
      "纬": 4073,
      "纭": 4074,
      "纯": 4075,
      "纱": 4076,
      "纲": 4077,
      "纳": 4078,
      "纵": 4079,
      "纷": 4080,
      "纸": 4081,
      "纹": 4082,
      "纺": 4083,
      "纽": 4084,
      "线": 4085,
      "练": 4086,
      "组": 4087,
      "绅": 4088,
      "细": 4089,
      "织": 4090,
      "终": 4091,
      "绊": 4092,
      "绌": 4093,
      "绍": 4094,
      "绎": 4095,
      "经": 4096,
      "绑": 4097,
      "绒": 4098,
      "结": 4099,
      "绔": 4100,
      "绕": 4101,
      "绘": 4102,
      "给": 4103,
      "绚": 4104,
      "络": 4105,
      "绝": 4106,
      "绞": 4107,
      "统": 4108,
      "绣": 4109,
      "绦": 4110,
      "继": 4111,
      "绩": 4112,
      "绪": 4113,
      "绫": 4114,
      "续": 4115,
      "绮": 4116,
      "绯": 4117,
      "绰": 4118,
      "绳": 4119,
      "维": 4120,
      "绵": 4121,
      "绷": 4122,
      "绸": 4123,
      "绺": 4124,
      "综": 4125,
      "绽": 4126,
      "绿": 4127,
      "缀": 4128,
      "缄": 4129,
      "缅": 4130,
      "缆": 4131,
      "缇": 4132,
      "缉": 4133,
      "缎": 4134,
      "缓": 4135,
      "缔": 4136,
      "编": 4137,
      "缘": 4138,
      "缚": 4139,
      "缜": 4140,
      "缝": 4141,
      "缠": 4142,
      "缤": 4143,
      "缩": 4144,
      "缪": 4145,
      "缭": 4146,
      "缰": 4147,
      "缴": 4148,
      "缶": 4149,
      "缸": 4150,
      "缺": 4151,
      "罄": 4152,
      "罐": 4153,
      "网": 4154,
      "罕": 4155,
      "罗": 4156,
      "罚": 4157,
      "罠": 4158,
      "罡": 4159,
      "罢": 4160,
      "罩": 4161,
      "罪": 4162,
      "置": 4163,
      "罰": 4164,
      "署": 4165,
      "罵": 4166,
      "罹": 4167,
      "羁": 4168,
      "羅": 4169,
      "羊": 4170,
      "羌": 4171,
      "美": 4172,
      "羔": 4173,
      "羚": 4174,
      "羞": 4175,
      "羡": 4176,
      "群": 4177,
      "羨": 4178,
      "義": 4179,
      "羯": 4180,
      "羹": 4181,
      "羽": 4182,
      "羿": 4183,
      "翀": 4184,
      "翁": 4185,
      "翅": 4186,
      "翊": 4187,
      "翌": 4188,
      "習": 4189,
      "翔": 4190,
      "翘": 4191,
      "翠": 4192,
      "翡": 4193,
      "翩": 4194,
      "翰": 4195,
      "翱": 4196,
      "翻": 4197,
      "翼": 4198,
      "耀": 4199,
      "老": 4200,
      "考": 4201,
      "耄": 4202,
      "者": 4203,
      "而": 4204,
      "耍": 4205,
      "耐": 4206,
      "耕": 4207,
      "耗": 4208,
      "耘": 4209,
      "耦": 4210,
      "耳": 4211,
      "耶": 4212,
      "耸": 4213,
      "耻": 4214,
      "耽": 4215,
      "聂": 4216,
      "聆": 4217,
      "聊": 4218,
      "聋": 4219,
      "职": 4220,
      "联": 4221,
      "聖": 4222,
      "聘": 4223,
      "聚": 4224,
      "聞": 4225,
      "聡": 4226,
      "聪": 4227,
      "聯": 4228,
      "聲": 4229,
      "聴": 4230,
      "職": 4231,
      "聾": 4232,
      "肃": 4233,
      "肆": 4234,
      "肇": 4235,
      "肉": 4236,
      "肋": 4237,
      "肌": 4238,
      "肖": 4239,
      "肘": 4240,
      "肚": 4241,
      "肛": 4242,
      "肝": 4243,
      "肠": 4244,
      "股": 4245,
      "肢": 4246,
      "肤": 4247,
      "肥": 4248,
      "肩": 4249,
      "肪": 4250,
      "肮": 4251,
      "肯": 4252,
      "肱": 4253,
      "育": 4254,
      "肴": 4255,
      "肺": 4256,
      "肾": 4257,
      "肿": 4258,
      "胀": 4259,
      "胁": 4260,
      "胃": 4261,
      "胆": 4262,
      "背": 4263,
      "胍": 4264,
      "胎": 4265,
      "胖": 4266,
      "胗": 4267,
      "胚": 4268,
      "胛": 4269,
      "胜": 4270,
      "胞": 4271,
      "胡": 4272,
      "胫": 4273,
      "胰": 4274,
      "胱": 4275,
      "胳": 4276,
      "胴": 4277,
      "胶": 4278,
      "胸": 4279,
      "胺": 4280,
      "能": 4281,
      "脂": 4282,
      "脅": 4283,
      "脆": 4284,
      "脇": 4285,
      "脈": 4286,
      "脉": 4287,
      "脊": 4288,
      "脏": 4289,
      "脐": 4290,
      "脑": 4291,
      "脓": 4292,
      "脖": 4293,
      "脚": 4294,
      "脛": 4295,
      "脫": 4296,
      "脱": 4297,
      "脳": 4298,
      "脸": 4299,
      "脾": 4300,
      "腆": 4301,
      "腊": 4302,
      "腋": 4303,
      "腌": 4304,
      "腎": 4305,
      "腐": 4306,
      "腑": 4307,
      "腓": 4308,
      "腔": 4309,
      "腕": 4310,
      "腥": 4311,
      "腦": 4312,
      "腩": 4313,
      "腫": 4314,
      "腭": 4315,
      "腮": 4316,
      "腰": 4317,
      "腱": 4318,
      "腸": 4319,
      "腹": 4320,
      "腺": 4321,
      "腻": 4322,
      "腼": 4323,
      "腾": 4324,
      "腿": 4325,
      "膀": 4326,
      "膊": 4327,
      "膏": 4328,
      "膚": 4329,
      "膛": 4330,
      "膜": 4331,
      "膝": 4332,
      "膠": 4333,
      "膣": 4334,
      "膨": 4335,
      "膳": 4336,
      "膵": 4337,
      "膺": 4338,
      "膽": 4339,
      "膿": 4340,
      "臀": 4341,
      "臂": 4342,
      "臆": 4343,
      "臍": 4344,
      "臓": 4345,
      "臘": 4346,
      "臣": 4347,
      "臥": 4348,
      "臨": 4349,
      "自": 4350,
      "臭": 4351,
      "至": 4352,
      "致": 4353,
      "臻": 4354,
      "臼": 4355,
      "舅": 4356,
      "舆": 4357,
      "與": 4358,
      "興": 4359,
      "舌": 4360,
      "舍": 4361,
      "舎": 4362,
      "舐": 4363,
      "舒": 4364,
      "舔": 4365,
      "舗": 4366,
      "舘": 4367,
      "舜": 4368,
      "舞": 4369,
      "舟": 4370,
      "航": 4371,
      "般": 4372,
      "舰": 4373,
      "舱": 4374,
      "舵": 4375,
      "舶": 4376,
      "船": 4377,
      "艇": 4378,
      "艘": 4379,
      "艦": 4380,
      "艮": 4381,
      "良": 4382,
      "艰": 4383,
      "色": 4384,
      "艳": 4385,
      "艶": 4386,
      "艷": 4387,
      "艺": 4388,
      "艾": 4389,
      "节": 4390,
      "芃": 4391,
      "芈": 4392,
      "芋": 4393,
      "芒": 4394,
      "芙": 4395,
      "芜": 4396,
      "芝": 4397,
      "芥": 4398,
      "芦": 4399,
      "芬": 4400,
      "芭": 4401,
      "芯": 4402,
      "花": 4403,
      "芳": 4404,
      "芷": 4405,
      "芸": 4406,
      "芹": 4407,
      "芽": 4408,
      "苇": 4409,
      "苋": 4410,
      "苍": 4411,
      "苏": 4412,
      "苑": 4413,
      "苒": 4414,
      "苔": 4415,
      "苗": 4416,
      "苛": 4417,
      "苜": 4418,
      "苞": 4419,
      "若": 4420,
      "苦": 4421,
      "英": 4422,
      "苹": 4423,
      "茂": 4424,
      "范": 4425,
      "茄": 4426,
      "茅": 4427,
      "茉": 4428,
      "茎": 4429,
      "茛": 4430,
      "茜": 4431,
      "茧": 4432,
      "茨": 4433,
      "茫": 4434,
      "茬": 4435,
      "茱": 4436,
      "茵": 4437,
      "茶": 4438,
      "茸": 4439,
      "茹": 4440,
      "荀": 4441,
      "荆": 4442,
      "草": 4443,
      "荊": 4444,
      "荐": 4445,
      "荒": 4446,
      "荔": 4447,
      "荘": 4448,
      "荞": 4449,
      "荡": 4450,
      "荣": 4451,
      "荧": 4452,
      "荨": 4453,
      "荪": 4454,
      "药": 4455,
      "荷": 4456,
      "荼": 4457,
      "莉": 4458,
      "莎": 4459,
      "莓": 4460,
      "莫": 4461,
      "莱": 4462,
      "莲": 4463,
      "莳": 4464,
      "获": 4465,
      "莹": 4466,
      "莺": 4467,
      "莽": 4468,
      "菁": 4469,
      "菇": 4470,
      "菊": 4471,
      "菌": 4472,
      "菓": 4473,
      "菘": 4474,
      "菜": 4475,
      "菠": 4476,
      "菩": 4477,
      "華": 4478,
      "菱": 4479,
      "菲": 4480,
      "萃": 4481,
      "萄": 4482,
      "萌": 4483,
      "萍": 4484,
      "萎": 4485,
      "萝": 4486,
      "萤": 4487,
      "营": 4488,
      "萧": 4489,
      "萨": 4490,
      "萬": 4491,
      "萱": 4492,
      "落": 4493,
      "葆": 4494,
      "葉": 4495,
      "著": 4496,
      "葚": 4497,
      "葛": 4498,
      "葡": 4499,
      "董": 4500,
      "葩": 4501,
      "葫": 4502,
      "葬": 4503,
      "葱": 4504,
      "葳": 4505,
      "葵": 4506,
      "蒂": 4507,
      "蒋": 4508,
      "蒔": 4509,
      "蒙": 4510,
      "蒜": 4511,
      "蒡": 4512,
      "蒲": 4513,
      "蒸": 4514,
      "蒼": 4515,
      "蒿": 4516,
      "蓄": 4517,
      "蓉": 4518,
      "蓋": 4519,
      "蓓": 4520,
      "蓝": 4521,
      "蓬": 4522,
      "蓮": 4523,
      "蓿": 4524,
      "蔑": 4525,
      "蔓": 4526,
      "蔗": 4527,
      "蔚": 4528,
      "蔡": 4529,
      "蔬": 4530,
      "蔵": 4531,
      "蔷": 4532,
      "蔻": 4533,
      "蔼": 4534,
      "蔽": 4535,
      "蕁": 4536,
      "蕃": 4537,
      "蕉": 4538,
      "蕎": 4539,
      "蕩": 4540,
      "蕴": 4541,
      "蕾": 4542,
      "薄": 4543,
      "薇": 4544,
      "薔": 4545,
      "薛": 4546,
      "薦": 4547,
      "薩": 4548,
      "薪": 4549,
      "薫": 4550,
      "薬": 4551,
      "薯": 4552,
      "薰": 4553,
      "藁": 4554,
      "藉": 4555,
      "藍": 4556,
      "藏": 4557,
      "藕": 4558,
      "藜": 4559,
      "藝": 4560,
      "藤": 4561,
      "藪": 4562,
      "藻": 4563,
      "蘇": 4564,
      "蘋": 4565,
      "蘑": 4566,
      "蘭": 4567,
      "蘸": 4568,
      "虎": 4569,
      "虏": 4570,
      "虐": 4571,
      "虑": 4572,
      "虔": 4573,
      "虚": 4574,
      "虜": 4575,
      "虞": 4576,
      "虫": 4577,
      "虱": 4578,
      "虹": 4579,
      "虽": 4580,
      "虾": 4581,
      "蚀": 4582,
      "蚁": 4583,
      "蚂": 4584,
      "蚊": 4585,
      "蚌": 4586,
      "蚕": 4587,
      "蚤": 4588,
      "蛀": 4589,
      "蛆": 4590,
      "蛇": 4591,
      "蛊": 4592,
      "蛋": 4593,
      "蛎": 4594,
      "蛔": 4595,
      "蛙": 4596,
      "蛛": 4597,
      "蛞": 4598,
      "蛤": 4599,
      "蛭": 4600,
      "蛮": 4601,
      "蛲": 4602,
      "蛸": 4603,
      "蜀": 4604,
      "蜂": 4605,
      "蜃": 4606,
      "蜇": 4607,
      "蜉": 4608,
      "蜓": 4609,
      "蜕": 4610,
      "蜗": 4611,
      "蜘": 4612,
      "蜚": 4613,
      "蜜": 4614,
      "蜡": 4615,
      "蜥": 4616,
      "蜴": 4617,
      "蜻": 4618,
      "蝇": 4619,
      "蝉": 4620,
      "蝋": 4621,
      "蝎": 4622,
      "蝓": 4623,
      "蝕": 4624,
      "蝗": 4625,
      "蝙": 4626,
      "蝠": 4627,
      "蝣": 4628,
      "蝮": 4629,
      "蝴": 4630,
      "蝶": 4631,
      "蝿": 4632,
      "螂": 4633,
      "螃": 4634,
      "螈": 4635,
      "融": 4636,
      "螨": 4637,
      "螳": 4638,
      "螺": 4639,
      "蟆": 4640,
      "蟑": 4641,
      "蟒": 4642,
      "蟠": 4643,
      "蟯": 4644,
      "蟹": 4645,
      "蟻": 4646,
      "蠍": 4647,
      "蠕": 4648,
      "蠢": 4649,
      "蠣": 4650,
      "血": 4651,
      "衅": 4652,
      "衆": 4653,
      "行": 4654,
      "衍": 4655,
      "術": 4656,
      "衔": 4657,
      "街": 4658,
      "衛": 4659,
      "衝": 4660,
      "衡": 4661,
      "衣": 4662,
      "补": 4663,
      "表": 4664,
      "衫": 4665,
      "衬": 4666,
      "衰": 4667,
      "衷": 4668,
      "袁": 4669,
      "袄": 4670,
      "袈": 4671,
      "袋": 4672,
      "袍": 4673,
      "袒": 4674,
      "袖": 4675,
      "袜": 4676,
      "被": 4677,
      "袭": 4678,
      "袱": 4679,
      "裁": 4680,
      "裂": 4681,
      "装": 4682,
      "裆": 4683,
      "裏": 4684,
      "裔": 4685,
      "裕": 4686,
      "裘": 4687,
      "裙": 4688,
      "補": 4689,
      "裟": 4690,
      "裡": 4691,
      "裤": 4692,
      "裳": 4693,
      "裴": 4694,
      "裸": 4695,
      "裹": 4696,
      "製": 4697,
      "褂": 4698,
      "複": 4699,
      "褐": 4700,
      "褒": 4701,
      "褚": 4702,
      "褛": 4703,
      "褥": 4704,
      "褪": 4705,
      "褴": 4706,
      "褶": 4707,
      "襟": 4708,
      "襲": 4709,
      "西": 4710,
      "要": 4711,
      "覃": 4712,
      "覆": 4713,
      "覇": 4714,
      "見": 4715,
      "規": 4716,
      "視": 4717,
      "覗": 4718,
      "覚": 4719,
      "覧": 4720,
      "親": 4721,
      "観": 4722,
      "见": 4723,
      "观": 4724,
      "规": 4725,
      "觅": 4726,
      "视": 4727,
      "览": 4728,
      "觉": 4729,
      "觊": 4730,
      "觎": 4731,
      "觑": 4732,
      "角": 4733,
      "解": 4734,
      "触": 4735,
      "言": 4736,
      "訂": 4737,
      "訃": 4738,
      "計": 4739,
      "訊": 4740,
      "討": 4741,
      "訓": 4742,
      "託": 4743,
      "記": 4744,
      "訚": 4745,
      "訟": 4746,
      "訣": 4747,
      "訪": 4748,
      "設": 4749,
      "許": 4750,
      "訳": 4751,
      "訴": 4752,
      "診": 4753,
      "証": 4754,
      "詐": 4755,
      "評": 4756,
      "詞": 4757,
      "詠": 4758,
      "試": 4759,
      "詩": 4760,
      "詫": 4761,
      "詰": 4762,
      "話": 4763,
      "該": 4764,
      "詳": 4765,
      "詹": 4766,
      "誇": 4767,
      "誉": 4768,
      "誌": 4769,
      "認": 4770,
      "誓": 4771,
      "誕": 4772,
      "誘": 4773,
      "語": 4774,
      "誠": 4775,
      "誤": 4776,
      "説": 4777,
      "読": 4778,
      "誰": 4779,
      "課": 4780,
      "誹": 4781,
      "調": 4782,
      "談": 4783,
      "請": 4784,
      "諍": 4785,
      "論": 4786,
      "諜": 4787,
      "諦": 4788,
      "諫": 4789,
      "諭": 4790,
      "諮": 4791,
      "諯": 4792,
      "諸": 4793,
      "諺": 4794,
      "諾": 4795,
      "謀": 4796,
      "謎": 4797,
      "謖": 4798,
      "謗": 4799,
      "謙": 4800,
      "講": 4801,
      "謝": 4802,
      "謡": 4803,
      "謬": 4804,
      "謹": 4805,
      "識": 4806,
      "譚": 4807,
      "譜": 4808,
      "警": 4809,
      "議": 4810,
      "譲": 4811,
      "護": 4812,
      "變": 4813,
      "讐": 4814,
      "讓": 4815,
      "计": 4816,
      "订": 4817,
      "认": 4818,
      "讥": 4819,
      "讨": 4820,
      "让": 4821,
      "讪": 4822,
      "训": 4823,
      "议": 4824,
      "讯": 4825,
      "记": 4826,
      "讲": 4827,
      "讳": 4828,
      "讴": 4829,
      "讶": 4830,
      "讷": 4831,
      "许": 4832,
      "论": 4833,
      "讼": 4834,
      "讽": 4835,
      "设": 4836,
      "访": 4837,
      "诀": 4838,
      "证": 4839,
      "诃": 4840,
      "评": 4841,
      "诅": 4842,
      "识": 4843,
      "诈": 4844,
      "诉": 4845,
      "诊": 4846,
      "诋": 4847,
      "词": 4848,
      "译": 4849,
      "试": 4850,
      "诗": 4851,
      "诚": 4852,
      "话": 4853,
      "诞": 4854,
      "诟": 4855,
      "诠": 4856,
      "诡": 4857,
      "询": 4858,
      "诣": 4859,
      "该": 4860,
      "详": 4861,
      "诫": 4862,
      "诬": 4863,
      "语": 4864,
      "误": 4865,
      "诱": 4866,
      "说": 4867,
      "诵": 4868,
      "请": 4869,
      "诸": 4870,
      "诺": 4871,
      "读": 4872,
      "诽": 4873,
      "课": 4874,
      "谁": 4875,
      "调": 4876,
      "谄": 4877,
      "谅": 4878,
      "谈": 4879,
      "谊": 4880,
      "谋": 4881,
      "谌": 4882,
      "谍": 4883,
      "谎": 4884,
      "谏": 4885,
      "谐": 4886,
      "谓": 4887,
      "谚": 4888,
      "谛": 4889,
      "谜": 4890,
      "谡": 4891,
      "谢": 4892,
      "谣": 4893,
      "谤": 4894,
      "谦": 4895,
      "谨": 4896,
      "谬": 4897,
      "谭": 4898,
      "谱": 4899,
      "谴": 4900,
      "谷": 4901,
      "豁": 4902,
      "豆": 4903,
      "豊": 4904,
      "豌": 4905,
      "豚": 4906,
      "象": 4907,
      "豪": 4908,
      "豫": 4909,
      "豹": 4910,
      "豺": 4911,
      "貂": 4912,
      "貌": 4913,
      "貘": 4914,
      "貝": 4915,
      "貞": 4916,
      "負": 4917,
      "財": 4918,
      "貢": 4919,
      "貧": 4920,
      "貨": 4921,
      "販": 4922,
      "貪": 4923,
      "貫": 4924,
      "責": 4925,
      "貯": 4926,
      "貴": 4927,
      "貶": 4928,
      "買": 4929,
      "貸": 4930,
      "費": 4931,
      "貼": 4932,
      "貿": 4933,
      "賀": 4934,
      "賂": 4935,
      "賃": 4936,
      "賄": 4937,
      "資": 4938,
      "賈": 4939,
      "賊": 4940,
      "賑": 4941,
      "賓": 4942,
      "賛": 4943,
      "賞": 4944,
      "賠": 4945,
      "賢": 4946,
      "賦": 4947,
      "質": 4948,
      "賭": 4949,
      "賺": 4950,
      "購": 4951,
      "賽": 4952,
      "贅": 4953,
      "贈": 4954,
      "贋": 4955,
      "贔": 4956,
      "贖": 4957,
      "贝": 4958,
      "贞": 4959,
      "负": 4960,
      "贡": 4961,
      "财": 4962,
      "责": 4963,
      "贤": 4964,
      "败": 4965,
      "账": 4966,
      "货": 4967,
      "质": 4968,
      "贩": 4969,
      "贪": 4970,
      "贫": 4971,
      "贬": 4972,
      "购": 4973,
      "贯": 4974,
      "贱": 4975,
      "贲": 4976,
      "贴": 4977,
      "贵": 4978,
      "贷": 4979,
      "贸": 4980,
      "费": 4981,
      "贺": 4982,
      "贻": 4983,
      "贼": 4984,
      "贾": 4985,
      "贿": 4986,
      "赁": 4987,
      "赂": 4988,
      "赃": 4989,
      "资": 4990,
      "赈": 4991,
      "赋": 4992,
      "赌": 4993,
      "赎": 4994,
      "赏": 4995,
      "赐": 4996,
      "赔": 4997,
      "赖": 4998,
      "赘": 4999,
      "赚": 5000,
      "赛": 5001,
      "赝": 5002,
      "赞": 5003,
      "赠": 5004,
      "赡": 5005,
      "赢": 5006,
      "赤": 5007,
      "赦": 5008,
      "赫": 5009,
      "走": 5010,
      "赴": 5011,
      "赵": 5012,
      "赶": 5013,
      "起": 5014,
      "趁": 5015,
      "超": 5016,
      "越": 5017,
      "趋": 5018,
      "趙": 5019,
      "趟": 5020,
      "趣": 5021,
      "足": 5022,
      "趴": 5023,
      "趾": 5024,
      "跃": 5025,
      "跋": 5026,
      "跌": 5027,
      "跑": 5028,
      "跛": 5029,
      "距": 5030,
      "跟": 5031,
      "跡": 5032,
      "跤": 5033,
      "跨": 5034,
      "跪": 5035,
      "路": 5036,
      "跳": 5037,
      "践": 5038,
      "跷": 5039,
      "跻": 5040,
      "踊": 5041,
      "踏": 5042,
      "踝": 5043,
      "踢": 5044,
      "踩": 5045,
      "踪": 5046,
      "踮": 5047,
      "踵": 5048,
      "蹄": 5049,
      "蹈": 5050,
      "蹊": 5051,
      "蹤": 5052,
      "蹩": 5053,
      "蹭": 5054,
      "蹲": 5055,
      "蹴": 5056,
      "蹶": 5057,
      "躁": 5058,
      "躇": 5059,
      "躊": 5060,
      "躍": 5061,
      "躓": 5062,
      "身": 5063,
      "躬": 5064,
      "躯": 5065,
      "躲": 5066,
      "躺": 5067,
      "躾": 5068,
      "車": 5069,
      "軋": 5070,
      "軌": 5071,
      "軍": 5072,
      "軒": 5073,
      "軟": 5074,
      "転": 5075,
      "軸": 5076,
      "軽": 5077,
      "較": 5078,
      "載": 5079,
      "輝": 5080,
      "輩": 5081,
      "輪": 5082,
      "輸": 5083,
      "轄": 5084,
      "轟": 5085,
      "轢": 5086,
      "车": 5087,
      "轨": 5088,
      "轩": 5089,
      "转": 5090,
      "轮": 5091,
      "软": 5092,
      "轰": 5093,
      "轴": 5094,
      "轶": 5095,
      "轻": 5096,
      "载": 5097,
      "轿": 5098,
      "较": 5099,
      "辄": 5100,
      "辅": 5101,
      "辆": 5102,
      "辈": 5103,
      "辉": 5104,
      "辍": 5105,
      "辐": 5106,
      "辑": 5107,
      "输": 5108,
      "辖": 5109,
      "辛": 5110,
      "辜": 5111,
      "辞": 5112,
      "辟": 5113,
      "辣": 5114,
      "辨": 5115,
      "辩": 5116,
      "辫": 5117,
      "辰": 5118,
      "辱": 5119,
      "農": 5120,
      "辷": 5121,
      "边": 5122,
      "辺": 5123,
      "込": 5124,
      "辽": 5125,
      "达": 5126,
      "辿": 5127,
      "迁": 5128,
      "迂": 5129,
      "迄": 5130,
      "迅": 5131,
      "过": 5132,
      "迈": 5133,
      "迎": 5134,
      "运": 5135,
      "近": 5136,
      "返": 5137,
      "还": 5138,
      "这": 5139,
      "进": 5140,
      "远": 5141,
      "违": 5142,
      "连": 5143,
      "迟": 5144,
      "迦": 5145,
      "迪": 5146,
      "迫": 5147,
      "迭": 5148,
      "述": 5149,
      "迷": 5150,
      "迹": 5151,
      "追": 5152,
      "退": 5153,
      "送": 5154,
      "适": 5155,
      "逃": 5156,
      "逅": 5157,
      "逆": 5158,
      "选": 5159,
      "逊": 5160,
      "逍": 5161,
      "透": 5162,
      "逐": 5163,
      "递": 5164,
      "途": 5165,
      "逗": 5166,
      "這": 5167,
      "通": 5168,
      "逛": 5169,
      "逝": 5170,
      "速": 5171,
      "造": 5172,
      "逢": 5173,
      "連": 5174,
      "逮": 5175,
      "週": 5176,
      "進": 5177,
      "逵": 5178,
      "逸": 5179,
      "逻": 5180,
      "逼": 5181,
      "逾": 5182,
      "遁": 5183,
      "遂": 5184,
      "遅": 5185,
      "遇": 5186,
      "遊": 5187,
      "運": 5188,
      "遍": 5189,
      "過": 5190,
      "遏": 5191,
      "遐": 5192,
      "道": 5193,
      "達": 5194,
      "違": 5195,
      "遗": 5196,
      "遛": 5197,
      "遜": 5198,
      "遠": 5199,
      "遡": 5200,
      "遢": 5201,
      "遣": 5202,
      "遥": 5203,
      "適": 5204,
      "遭": 5205,
      "遮": 5206,
      "遵": 5207,
      "遷": 5208,
      "選": 5209,
      "遺": 5210,
      "遼": 5211,
      "避": 5212,
      "邀": 5213,
      "邂": 5214,
      "還": 5215,
      "邋": 5216,
      "邓": 5217,
      "邡": 5218,
      "邢": 5219,
      "那": 5220,
      "邦": 5221,
      "邪": 5222,
      "邮": 5223,
      "邱": 5224,
      "邵": 5225,
      "邸": 5226,
      "邹": 5227,
      "邻": 5228,
      "郁": 5229,
      "郃": 5230,
      "郅": 5231,
      "郊": 5232,
      "郎": 5233,
      "郑": 5234,
      "郝": 5235,
      "郡": 5236,
      "部": 5237,
      "郭": 5238,
      "郵": 5239,
      "郷": 5240,
      "都": 5241,
      "鄂": 5242,
      "鄒": 5243,
      "鄙": 5244,
      "鄧": 5245,
      "鄭": 5246,
      "鄱": 5247,
      "酊": 5248,
      "酋": 5249,
      "配": 5250,
      "酒": 5251,
      "酔": 5252,
      "酗": 5253,
      "酢": 5254,
      "酥": 5255,
      "酩": 5256,
      "酪": 5257,
      "酬": 5258,
      "酮": 5259,
      "酯": 5260,
      "酰": 5261,
      "酱": 5262,
      "酵": 5263,
      "酶": 5264,
      "酷": 5265,
      "酸": 5266,
      "酿": 5267,
      "醇": 5268,
      "醉": 5269,
      "醋": 5270,
      "醒": 5271,
      "醛": 5272,
      "醜": 5273,
      "醤": 5274,
      "醫": 5275,
      "醸": 5276,
      "醺": 5277,
      "采": 5278,
      "釈": 5279,
      "释": 5280,
      "里": 5281,
      "重": 5282,
      "野": 5283,
      "量": 5284,
      "金": 5285,
      "釘": 5286,
      "釜": 5287,
      "針": 5288,
      "釣": 5289,
      "鈍": 5290,
      "鈞": 5291,
      "鈴": 5292,
      "鈺": 5293,
      "鉄": 5294,
      "鉛": 5295,
      "鉢": 5296,
      "鉤": 5297,
      "鉱": 5298,
      "鉴": 5299,
      "銀": 5300,
      "銃": 5301,
      "銅": 5302,
      "銘": 5303,
      "銭": 5304,
      "銮": 5305,
      "鋒": 5306,
      "鋭": 5307,
      "鋳": 5308,
      "鋼": 5309,
      "錆": 5310,
      "錠": 5311,
      "錢": 5312,
      "錤": 5313,
      "錦": 5314,
      "錫": 5315,
      "錬": 5316,
      "錯": 5317,
      "録": 5318,
      "鍋": 5319,
      "鍛": 5320,
      "鍬": 5321,
      "鍮": 5322,
      "鍵": 5323,
      "鍾": 5324,
      "鎌": 5325,
      "鎏": 5326,
      "鎔": 5327,
      "鎖": 5328,
      "鎧": 5329,
      "鎮": 5330,
      "鏡": 5331,
      "鐘": 5332,
      "鐸": 5333,
      "鑑": 5334,
      "鑫": 5335,
      "鑾": 5336,
      "针": 5337,
      "钉": 5338,
      "钓": 5339,
      "钙": 5340,
      "钛": 5341,
      "钝": 5342,
      "钞": 5343,
      "钟": 5344,
      "钠": 5345,
      "钢": 5346,
      "钥": 5347,
      "钦": 5348,
      "钧": 5349,
      "钨": 5350,
      "钩": 5351,
      "钮": 5352,
      "钯": 5353,
      "钰": 5354,
      "钱": 5355,
      "钴": 5356,
      "钻": 5357,
      "钼": 5358,
      "钽": 5359,
      "钾": 5360,
      "铀": 5361,
      "铁": 5362,
      "铂": 5363,
      "铃": 5364,
      "铅": 5365,
      "铉": 5366,
      "铎": 5367,
      "铜": 5368,
      "铝": 5369,
      "铢": 5370,
      "铤": 5371,
      "铭": 5372,
      "铲": 5373,
      "银": 5374,
      "铸": 5375,
      "铺": 5376,
      "链": 5377,
      "销": 5378,
      "锁": 5379,
      "锂": 5380,
      "锄": 5381,
      "锅": 5382,
      "锈": 5383,
      "锋": 5384,
      "锌": 5385,
      "锏": 5386,
      "锐": 5387,
      "锑": 5388,
      "错": 5389,
      "锚": 5390,
      "锡": 5391,
      "锤": 5392,
      "锥": 5393,
      "锦": 5394,
      "键": 5395,
      "锯": 5396,
      "锰": 5397,
      "锹": 5398,
      "锻": 5399,
      "锿": 5400,
      "镀": 5401,
      "镁": 5402,
      "镇": 5403,
      "镍": 5404,
      "镐": 5405,
      "镑": 5406,
      "镓": 5407,
      "镕": 5408,
      "镖": 5409,
      "镜": 5410,
      "镣": 5411,
      "镭": 5412,
      "镯": 5413,
      "镰": 5414,
      "镳": 5415,
      "镶": 5416,
      "長": 5417,
      "长": 5418,
      "門": 5419,
      "閃": 5420,
      "閉": 5421,
      "開": 5422,
      "閏": 5423,
      "閑": 5424,
      "間": 5425,
      "関": 5426,
      "閣": 5427,
      "閥": 5428,
      "閲": 5429,
      "閻": 5430,
      "閾": 5431,
      "闇": 5432,
      "闊": 5433,
      "闘": 5434,
      "门": 5435,
      "闪": 5436,
      "闫": 5437,
      "闭": 5438,
      "问": 5439,
      "闯": 5440,
      "闲": 5441,
      "间": 5442,
      "闷": 5443,
      "闸": 5444,
      "闹": 5445,
      "闺": 5446,
      "闻": 5447,
      "阀": 5448,
      "阁": 5449,
      "阅": 5450,
      "阎": 5451,
      "阐": 5452,
      "阑": 5453,
      "阔": 5454,
      "阜": 5455,
      "队": 5456,
      "阪": 5457,
      "阮": 5458,
      "阱": 5459,
      "防": 5460,
      "阳": 5461,
      "阴": 5462,
      "阵": 5463,
      "阶": 5464,
      "阻": 5465,
      "阿": 5466,
      "陀": 5467,
      "附": 5468,
      "际": 5469,
      "陆": 5470,
      "陈": 5471,
      "陋": 5472,
      "陌": 5473,
      "降": 5474,
      "限": 5475,
      "陕": 5476,
      "陛": 5477,
      "陝": 5478,
      "陡": 5479,
      "院": 5480,
      "陣": 5481,
      "除": 5482,
      "陥": 5483,
      "陨": 5484,
      "险": 5485,
      "陪": 5486,
      "陰": 5487,
      "陳": 5488,
      "陵": 5489,
      "陶": 5490,
      "陷": 5491,
      "陸": 5492,
      "険": 5493,
      "陽": 5494,
      "隅": 5495,
      "隆": 5496,
      "隊": 5497,
      "隋": 5498,
      "階": 5499,
      "随": 5500,
      "隐": 5501,
      "隔": 5502,
      "隕": 5503,
      "隘": 5504,
      "隙": 5505,
      "際": 5506,
      "障": 5507,
      "隠": 5508,
      "隣": 5509,
      "隧": 5510,
      "險": 5511,
      "隶": 5512,
      "隷": 5513,
      "隻": 5514,
      "隼": 5515,
      "隽": 5516,
      "难": 5517,
      "雀": 5518,
      "雁": 5519,
      "雄": 5520,
      "雅": 5521,
      "集": 5522,
      "雇": 5523,
      "雉": 5524,
      "雌": 5525,
      "雍": 5526,
      "雏": 5527,
      "雑": 5528,
      "雕": 5529,
      "雛": 5530,
      "雜": 5531,
      "離": 5532,
      "難": 5533,
      "雨": 5534,
      "雪": 5535,
      "雯": 5536,
      "雰": 5537,
      "雲": 5538,
      "雳": 5539,
      "零": 5540,
      "雷": 5541,
      "雹": 5542,
      "電": 5543,
      "雾": 5544,
      "需": 5545,
      "霄": 5546,
      "霆": 5547,
      "震": 5548,
      "霉": 5549,
      "霊": 5550,
      "霍": 5551,
      "霏": 5552,
      "霜": 5553,
      "霞": 5554,
      "霧": 5555,
      "露": 5556,
      "霸": 5557,
      "霹": 5558,
      "霾": 5559,
      "靂": 5560,
      "青": 5561,
      "靓": 5562,
      "靖": 5563,
      "静": 5564,
      "非": 5565,
      "靠": 5566,
      "靡": 5567,
      "面": 5568,
      "革": 5569,
      "靭": 5570,
      "靱": 5571,
      "靳": 5572,
      "靴": 5573,
      "靶": 5574,
      "鞅": 5575,
      "鞋": 5576,
      "鞍": 5577,
      "鞏": 5578,
      "鞘": 5579,
      "鞠": 5580,
      "鞣": 5581,
      "鞭": 5582,
      "韋": 5583,
      "韓": 5584,
      "韦": 5585,
      "韧": 5586,
      "韩": 5587,
      "韫": 5588,
      "韬": 5589,
      "韭": 5590,
      "音": 5591,
      "韵": 5592,
      "韶": 5593,
      "韻": 5594,
      "響": 5595,
      "頁": 5596,
      "頂": 5597,
      "頃": 5598,
      "項": 5599,
      "順": 5600,
      "須": 5601,
      "頌": 5602,
      "預": 5603,
      "頑": 5604,
      "頒": 5605,
      "頓": 5606,
      "領": 5607,
      "頚": 5608,
      "頤": 5609,
      "頬": 5610,
      "頭": 5611,
      "頴": 5612,
      "頸": 5613,
      "頻": 5614,
      "頼": 5615,
      "題": 5616,
      "額": 5617,
      "顎": 5618,
      "顏": 5619,
      "顔": 5620,
      "顕": 5621,
      "願": 5622,
      "類": 5623,
      "顧": 5624,
      "顴": 5625,
      "页": 5626,
      "顶": 5627,
      "顷": 5628,
      "项": 5629,
      "顺": 5630,
      "须": 5631,
      "顽": 5632,
      "顾": 5633,
      "顿": 5634,
      "颁": 5635,
      "颂": 5636,
      "预": 5637,
      "颅": 5638,
      "领": 5639,
      "颇": 5640,
      "颈": 5641,
      "颊": 5642,
      "颌": 5643,
      "颐": 5644,
      "频": 5645,
      "颓": 5646,
      "颖": 5647,
      "颗": 5648,
      "题": 5649,
      "颚": 5650,
      "颜": 5651,
      "额": 5652,
      "颠": 5653,
      "颤": 5654,
      "風": 5655,
      "颯": 5656,
      "飆": 5657,
      "风": 5658,
      "飒": 5659,
      "飓": 5660,
      "飘": 5661,
      "飙": 5662,
      "飚": 5663,
      "飛": 5664,
      "飞": 5665,
      "食": 5666,
      "飢": 5667,
      "飯": 5668,
      "飲": 5669,
      "飴": 5670,
      "飼": 5671,
      "飽": 5672,
      "飾": 5673,
      "餃": 5674,
      "餅": 5675,
      "養": 5676,
      "餌": 5677,
      "餐": 5678,
      "餓": 5679,
      "館": 5680,
      "饅": 5681,
      "饉": 5682,
      "饗": 5683,
      "饥": 5684,
      "饪": 5685,
      "饭": 5686,
      "饮": 5687,
      "饰": 5688,
      "饱": 5689,
      "饲": 5690,
      "饵": 5691,
      "饶": 5692,
      "饺": 5693,
      "饼": 5694,
      "饿": 5695,
      "馁": 5696,
      "馅": 5697,
      "馆": 5698,
      "馈": 5699,
      "馐": 5700,
      "馒": 5701,
      "馕": 5702,
      "首": 5703,
      "馗": 5704,
      "香": 5705,
      "馨": 5706,
      "馬": 5707,
      "馭": 5708,
      "馮": 5709,
      "馳": 5710,
      "馴": 5711,
      "駄": 5712,
      "駅": 5713,
      "駆": 5714,
      "駐": 5715,
      "駒": 5716,
      "駕": 5717,
      "駿": 5718,
      "騁": 5719,
      "騎": 5720,
      "騏": 5721,
      "騒": 5722,
      "験": 5723,
      "騙": 5724,
      "騰": 5725,
      "驅": 5726,
      "驚": 5727,
      "驟": 5728,
      "马": 5729,
      "驭": 5730,
      "驯": 5731,
      "驰": 5732,
      "驱": 5733,
      "驳": 5734,
      "驴": 5735,
      "驶": 5736,
      "驷": 5737,
      "驹": 5738,
      "驻": 5739,
      "驼": 5740,
      "驾": 5741,
      "驿": 5742,
      "骁": 5743,
      "骂": 5744,
      "骄": 5745,
      "骆": 5746,
      "骇": 5747,
      "骋": 5748,
      "验": 5749,
      "骏": 5750,
      "骐": 5751,
      "骑": 5752,
      "骗": 5753,
      "骚": 5754,
      "骡": 5755,
      "骤": 5756,
      "骨": 5757,
      "骶": 5758,
      "骷": 5759,
      "骸": 5760,
      "骺": 5761,
      "骼": 5762,
      "髄": 5763,
      "髅": 5764,
      "髋": 5765,
      "髓": 5766,
      "體": 5767,
      "高": 5768,
      "髦": 5769,
      "髪": 5770,
      "髭": 5771,
      "鬃": 5772,
      "鬆": 5773,
      "鬟": 5774,
      "鬣": 5775,
      "鬱": 5776,
      "鬼": 5777,
      "魁": 5778,
      "魂": 5779,
      "魄": 5780,
      "魅": 5781,
      "魇": 5782,
      "魏": 5783,
      "魔": 5784,
      "魚": 5785,
      "魯": 5786,
      "鮑": 5787,
      "鮫": 5788,
      "鮮": 5789,
      "鯉": 5790,
      "鯨": 5791,
      "鰭": 5792,
      "鱗": 5793,
      "鱼": 5794,
      "鱿": 5795,
      "鲁": 5796,
      "鲍": 5797,
      "鲑": 5798,
      "鲛": 5799,
      "鲜": 5800,
      "鲟": 5801,
      "鲤": 5802,
      "鲨": 5803,
      "鲲": 5804,
      "鲵": 5805,
      "鲶": 5806,
      "鲸": 5807,
      "鲼": 5808,
      "鳄": 5809,
      "鳅": 5810,
      "鳌": 5811,
      "鳍": 5812,
      "鳏": 5813,
      "鳗": 5814,
      "鳝": 5815,
      "鳞": 5816,
      "鳥": 5817,
      "鳩": 5818,
      "鳳": 5819,
      "鳴": 5820,
      "鴨": 5821,
      "鴻": 5822,
      "鵬": 5823,
      "鵰": 5824,
      "鵲": 5825,
      "鶏": 5826,
      "鶴": 5827,
      "鷗": 5828,
      "鷲": 5829,
      "鷹": 5830,
      "鷺": 5831,
      "鸟": 5832,
      "鸠": 5833,
      "鸡": 5834,
      "鸣": 5835,
      "鸥": 5836,
      "鸦": 5837,
      "鸨": 5838,
      "鸭": 5839,
      "鸮": 5840,
      "鸯": 5841,
      "鸳": 5842,
      "鸵": 5843,
      "鸸": 5844,
      "鸽": 5845,
      "鸿": 5846,
      "鹀": 5847,
      "鹃": 5848,
      "鹅": 5849,
      "鹈": 5850,
      "鹉": 5851,
      "鹊": 5852,
      "鹋": 5853,
      "鹌": 5854,
      "鹏": 5855,
      "鹑": 5856,
      "鹕": 5857,
      "鹤": 5858,
      "鹦": 5859,
      "鹫": 5860,
      "鹬": 5861,
      "鹭": 5862,
      "鹮": 5863,
      "鹰": 5864,
      "鹳": 5865,
      "鹵": 5866,
      "鹸": 5867,
      "鹿": 5868,
      "麋": 5869,
      "麒": 5870,
      "麓": 5871,
      "麗": 5872,
      "麝": 5873,
      "麟": 5874,
      "麦": 5875,
      "麸": 5876,
      "麺": 5877,
      "麻": 5878,
      "麼": 5879,
      "麽": 5880,
      "麾": 5881,
      "黄": 5882,
      "黎": 5883,
      "黏": 5884,
      "黑": 5885,
      "黒": 5886,
      "默": 5887,
      "黙": 5888,
      "黛": 5889,
      "黜": 5890,
      "黝": 5891,
      "黯": 5892,
      "鼎": 5893,
      "鼓": 5894,
      "鼠": 5895,
      "鼩": 5896,
      "鼬": 5897,
      "鼱": 5898,
      "鼹": 5899,
      "鼻": 5900,
      "鼾": 5901,
      "齊": 5902,
      "齐": 5903,
      "齢": 5904,
      "齿": 5905,
      "龄": 5906,
      "龈": 5907,
      "龋": 5908,
      "龍": 5909,
      "龐": 5910,
      "龙": 5911,
      "龚": 5912,
      "龟": 5913,
      "ꞌ": 5914,
      "가": 5915,
      "개": 5916,
      "경": 5917,
      "고": 5918,
      "과": 5919,
      "궁": 5920,
      "근": 5921,
      "기": 5922,
      "념": 5923,
      "는": 5924,
      "단": 5925,
      "달": 5926,
      "더": 5927,
      "둔": 5928,
      "들": 5929,
      "때": 5930,
      "떤": 5931,
      "랑": 5932,
      "려": 5933,
      "료": 5934,
      "리": 5935,
      "문": 5936,
      "발": 5937,
      "번": 5938,
      "복": 5939,
      "빙": 5940,
      "빨": 5941,
      "설": 5942,
      "섹": 5943,
      "셀": 5944,
      "신": 5945,
      "약": 5946,
      "어": 5947,
      "에": 5948,
      "여": 5949,
      "역": 5950,
      "왜": 5951,
      "요": 5952,
      "용": 5953,
      "운": 5954,
      "은": 5955,
      "을": 5956,
      "이": 5957,
      "인": 5958,
      "임": 5959,
      "자": 5960,
      "장": 5961,
      "전": 5962,
      "점": 5963,
      "정": 5964,
      "종": 5965,
      "좋": 5966,
      "질": 5967,
      "천": 5968,
      "치": 5969,
      "카": 5970,
      "판": 5971,
      "표": 5972,
      "피": 5973,
      "필": 5974,
      "하": 5975,
      "효": 5976,
      "히": 5977,
      "ﻻ": 5978,
      "！": 5979,
      "％": 5980,
      "＆": 5981,
      "（": 5982,
      "）": 5983,
      "＋": 5984,
      "，": 5985,
      "－": 5986,
      "／": 5987,
      "０": 5988,
      "１": 5989,
      "２": 5990,
      "３": 5991,
      "４": 5992,
      "５": 5993,
      "６": 5994,
      "８": 5995,
      "９": 5996,
      "：": 5997,
      "；": 5998,
      "＝": 5999,
      "＞": 6000,
      "？": 6001,
      "Ａ": 6002,
      "Ｎ": 6003,
      "Ｓ": 6004,
      "Ｗ": 6005,
      "｜": 6006,
      "～": 6007,
      "｢": 6008,
      "｣": 6009,
      "･": 6010,
      "😂": 6011,
      "😜": 6012,
      "🤩": 6013,
      "🤪": 6014,
      "🥇": 6015,
      "in": 6016,
      "an": 6017,
      "ar": 6018,
      ".\t": 6019,
      "ан": 6020,
      "ар": 6021,
      "▁к": 6022,
      "▁t": 6023,
      "er": 6024,
      "ал": 6025,
      "on": 6026,
      "▁б": 6027,
      "▁b": 6028,
      "ен": 6029,
      "il": 6030,
      "▁ئ": 6031,
      "ер": 6032,
      "▁с": 6033,
      "en": 6034,
      "▁ж": 6035,
      "ын": 6036,
      "al": 6037,
      "▁s": 6038,
      "لى": 6039,
      "at": 6040,
      "as": 6041,
      "▁o": 6042,
      "да": 6043,
      "▁т": 6044,
      "di": 6045,
      "ол": 6046,
      "is": 6047,
      "نى": 6048,
      "▁м": 6049,
      "da": 6050,
      "\r\n": 6051,
      "▁y": 6052,
      "▁k": 6053,
      "ды": 6054,
      "or": 6055,
      "▁ب": 6056,
      "。\t": 6057,
      "ат": 6058,
      "▁m": 6059,
      "?\t": 6060,
      "ch": 6061,
      "es": 6062,
      "ас": 6063,
      "▁п": 6064,
      "ин": 6065,
      "دى": 6066,
      "он": 6067,
      "ет": 6068,
      "ان": 6069,
      "ing": 6070,
      "ir": 6071,
      "ел": 6072,
      "ay": 6073,
      "un": 6074,
      "ай": 6075,
      "li": 6076,
      "lar": 6077,
      "▁в": 6078,
      "ст": 6079,
      "▁h": 6080,
      "ор": 6081,
      "am": 6082,
      "ed": 6083,
      "el": 6084,
      "▁1": 6085,
      "سى": 6086,
      "تى": 6087,
      "ار": 6088,
      "▁н": 6089,
      "▁f": 6090,
      "▁th": 6091,
      "▁ق": 6092,
      "▁ك": 6093,
      "ил": 6094,
      "▁о": 6095,
      "ыл": 6096,
      "▁ت": 6097,
      "et": 6098,
      "▁م": 6099,
      "ur": 6100,
      "▁p": 6101,
      "▁a": 6102,
      "ol": 6103,
      "ın": 6104,
      "▁g": 6105,
      "ов": 6106,
      "ия": 6107,
      "iy": 6108,
      "▁а": 6109,
      "▁ي": 6110,
      "▁d": 6111,
      "ом": 6112,
      "ak": 6113,
      "кт": 6114,
      "رى": 6115,
      "ем": 6116,
      "▁M": 6117,
      "▁д": 6118,
      "▁q": 6119,
      "ес": 6120,
      ".\r\n": 6121,
      "▁қ": 6122,
      "▁the": 6123,
      "om": 6124,
      "o'": 6125,
      "▁ئا": 6126,
      "ىل": 6127,
      "▁w": 6128,
      "▁2": 6129,
      "ун": 6130,
      "ра": 6131,
      "▁n": 6132,
      "it": 6133,
      "ek": 6134,
      "ей": 6135,
      "iz": 6136,
      "▁r": 6137,
      "نىڭ": 6138,
      "ли": 6139,
      "ish": 6140,
      "ot": 6141,
      "ін": 6142,
      "▁S": 6143,
      "▁э": 6144,
      "ga": 6145,
      "ты": 6146,
      "im": 6147,
      "!\t": 6148,
      "▁c": 6149,
      "▁и": 6150,
      "▁v": 6151,
      "？\t": 6152,
      "▁in": 6153,
      "▁A": 6154,
      "ді": 6155,
      "ул": 6156,
      "os": 6157,
      "us": 6158,
      "كى": 6159,
      "la": 6160,
      "▁ч": 6161,
      "ог": 6162,
      "▁ал": 6163,
      "gi": 6164,
      "ەن": 6165,
      "le": 6166,
      "▁бол": 6167,
      "di.\t": 6168,
      "▁М": 6169,
      "ек": 6170,
      "した": 6171,
      "قى": 6172,
      "ир": 6173,
      "00": 6174,
      "ит": 6175,
      "үн": 6176,
      "▁س": 6177,
      "ны": 6178,
      "от": 6179,
      "ad": 6180,
      "ам": 6181,
      "ды.\t": 6182,
      "دا": 6183,
      "ەر": 6184,
      "▁B": 6185,
      "ду": 6186,
      "ег": 6187,
      "ур": 6188,
      "▁(": 6189,
      "сы": 6190,
      "ال": 6191,
      "em": 6192,
      "ti": 6193,
      "مى": 6194,
      "اي": 6195,
      "▁пр": 6196,
      "ەت": 6197,
      "and": 6198,
      "ini": 6199,
      "ак": 6200,
      "ul": 6201,
      "▁C": 6202,
      "ik": 6203,
      "уу": 6204,
      "аш": 6205,
      "▁of": 6206,
      "▁р": 6207,
      "▁'": 6208,
      "▁to": 6209,
      "ой": 6210,
      "gan": 6211,
      "ول": 6212,
      "ары": 6213,
      "▁L": 6214,
      "▁з": 6215,
      "چى": 6216,
      "ut": 6217,
      "ab": 6218,
      "دۇ": 6219,
      "өр": 6220,
      "▁у": 6221,
      "▁P": 6222,
      "دى\t": 6223,
      "id": 6224,
      "شى": 6225,
      "ик": 6226,
      "▁ө": 6227,
      "ec": 6228,
      "▁bir": 6229,
      "ыз": 6230,
      "▁R": 6231,
      "из": 6232,
      "ос": 6233,
      "ед": 6234,
      "▁e": 6235,
      "▁на": 6236,
      "аң": 6237,
      "▁3": 6238,
      "▁u": 6239,
      "ro": 6240,
      "ىر": 6241,
      "од": 6242,
      "ic": 6243,
      "ter": 6244,
      "▁С": 6245,
      "ました": 6246,
      "▁ф": 6247,
      "▁г": 6248,
      "ey": 6249,
      "▁Б": 6250,
      "та": 6251,
      "▁T": 6252,
      "ок": 6253,
      "▁ol": 6254,
      "ез": 6255,
      "об": 6256,
      "им": 6257,
      "ында": 6258,
      "де": 6259,
      "▁ү": 6260,
      "▁K": 6261,
      "ыр": 6262,
      "um": 6263,
      "ىلى": 6264,
      "ni": 6265,
      "'s": 6266,
      "ash": 6267,
      "av": 6268,
      "алы": 6269,
      "▁پ": 6270,
      "аб": 6271,
      "ang": 6272,
      "ғы": 6273,
      "дар": 6274,
      "لىق": 6275,
      "із": 6276,
      "chi": 6277,
      "▁G": 6278,
      "▁К": 6279,
      "▁ن": 6280,
      "az": 6281,
      "▁ئى": 6282,
      "анда": 6283,
      "ың": 6284,
      "ap": 6285,
      "ең": 6286,
      "▁مۇ": 6287,
      "غان": 6288,
      "?\r\n": 6289,
      "ск": 6290,
      "▁en": 6291,
      "دە": 6292,
      "ір": 6293,
      "ест": 6294,
      "▁o'": 6295,
      "ning": 6296,
      "ап": 6297,
      "ion": 6298,
      "ий": 6299,
      "؟\t": 6300,
      "▁ھ": 6301,
      "га": 6302,
      "ib": 6303,
      "か？\t": 6304,
      "үр": 6305,
      "▁i": 6306,
      "▁А": 6307,
      "▁H": 6308,
      "ри": 6309,
      "ev": 6310,
      "ra": 6311,
      "▁ш": 6312,
      "غا": 6313,
      "▁ئە": 6314,
      "ler": 6315,
      "02": 6316,
      "но": 6317,
      "ob": 6318,
      "asi": 6319,
      "▁be": 6320,
      "асы": 6321,
      "▁چ": 6322,
      "ıl": 6323,
      "sh": 6324,
      "اش": 6325,
      "▁Л": 6326,
      "ون": 6327,
      "ие": 6328,
      "▁«": 6329,
      "ün": 6330,
      "ます": 6331,
      "ok": 6332,
      "ta": 6333,
      "▁ком": 6334,
      "▁تو": 6335,
      "▁мен": 6336,
      "ent": 6337,
      "mi": 6338,
      "ました。\t": 6339,
      "oy": 6340,
      "▁خ": 6341,
      "гы": 6342,
      "وم": 6343,
      "▁is": 6344,
      "ти": 6345,
      "▁Р": 6346,
      "ۇر": 6347,
      "ers": 6348,
      "dan": 6349,
      "ая": 6350,
      "▁j": 6351,
      "od": 6352,
      "▁кө": 6353,
      "аны": 6354,
      "▁ئې": 6355,
      "لار": 6356,
      "▁D": 6357,
      "lan": 6358,
      "re": 6359,
      "ся": 6360,
      "BA": 6361,
      "dı": 6362,
      "ақ": 6363,
      "ig": 6364,
      "▁ar": 6365,
      "ام": 6366,
      "си": 6367,
      "ac": 6368,
      "▁ç": 6369,
      "тер": 6370,
      "ға": 6371,
      "lik": 6372,
      "▁bu": 6373,
      "лі": 6374,
      "ди": 6375,
      "дан": 6376,
      "ess": 6377,
      "▁N": 6378,
      "▁bo'": 6379,
      "иль": 6380,
      "ık": 6381,
      "▁10": 6382,
      "то": 6383,
      ")\t": 6384,
      "үү": 6385,
      "ган": 6386,
      "ің": 6387,
      "▁4": 6388,
      "▁بول": 6389,
      "▁qil": 6390,
      "لە": 6391,
      "دىكى": 6392,
      "▁5": 6393,
      "▁ر": 6394,
      "دىن": 6395,
      "ات": 6396,
      ":1": 6397,
      "▁ли": 6398,
      "ag": 6399,
      "ав": 6400,
      "▁yo": 6401,
      "▁بىر": 6402,
      "ық": 6403,
      "▁Д": 6404,
      "пи": 6405,
      "ев": 6406,
      "سا": 6407,
      "بى": 6408,
      "ov": 6409,
      "аз": 6410,
      "▁J": 6411,
      "tı": 6412,
      "ут": 6413,
      "ېر": 6414,
      "дам": 6415,
      "▁bil": 6416,
      "ۈر": 6417,
      "▁кел": 6418,
      "he": 6419,
      "ۇن": 6420,
      "ow": 6421,
      "▁Y": 6422,
      "▁l": 6423,
      "▁F": 6424,
      "alar": 6425,
      "):": 6426,
      "өн": 6427,
      "です": 6428,
      "tr": 6429,
      "！\t": 6430,
      "ып": 6431,
      "ге": 6432,
      "ив": 6433,
      "ەل": 6434,
      "dagi": 6435,
      "ki": 6436,
      "du": 6437,
      "ah": 6438,
      "▁يې": 6439,
      "de": 6440,
      "ly": 6441,
      "▁не": 6442,
      "▁W": 6443,
      "юн": 6444,
      "زى": 6445,
      "ож": 6446,
      "لىك": 6447,
      "lari": 6448,
      "айт": 6449,
      "ور": 6450,
      "ەك": 6451,
      "ڭى": 6452,
      "мен": 6453,
      "▁П": 6454,
      "▁жыл": 6455,
      "リー": 6456,
      "▁al": 6457,
      "▁ج": 6458,
      "▁л": 6459,
      "оп": 6460,
      "ia": 6461,
      "ына": 6462,
      "ining": 6463,
      "اق": 6464,
      "ого": 6465,
      "ии": 6466,
      "▁ә": 6467,
      "گە": 6468,
      "▁on": 6469,
      "ый": 6470,
      "ya": 6471,
      "▁ch": 6472,
      "▁E": 6473,
      "▁an": 6474,
      "ка": 6475,
      "үй": 6476,
      "▁ne": 6477,
      "iv": 6478,
      "يا": 6479,
      "▁et": 6480,
      "pp": 6481,
      "еш": 6482,
      "ma": 6483,
      "され": 6484,
      "▁I": 6485,
      "ған": 6486,
      "ост": 6487,
      "'n": 6488,
      "ong": 6489,
      "aş": 6490,
      "▁sh": 6491,
      "дын": 6492,
      "ект": 6493,
      "▁for": 6494,
      "ەي": 6495,
      "▁di": 6496,
      "پى": 6497,
      "иг": 6498,
      "ау": 6499,
      "▁بۇ": 6500,
      "▁ۋ": 6501,
      "▁da": 6502,
      "▁and": 6503,
      "st": 6504,
      "тт": 6505,
      "▁ст": 6506,
      "ill": 6507,
      "уд": 6508,
      "▁X": 6509,
      "obil": 6510,
      "ez": 6511,
      "ır": 6512,
      "шы": 6513,
      "لىرى": 6514,
      "▁вы": 6515,
      "يە": 6516,
      ".\tB": 6517,
      "ынын": 6518,
      "op": 6519,
      "est": 6520,
      "▁U": 6521,
      "▁да": 6522,
      "ұл": 6523,
      "aq": 6524,
      "▁كۆ": 6525,
      "eal": 6526,
      "ce": 6527,
      "пион": 6528,
      "▁Ч": 6529,
      "▁كې": 6530,
      "لان": 6531,
      "емпион": 6532,
      "ад": 6533,
      "▁ай": 6534,
      "▁менен": 6535,
      "osh": 6536,
      "\tT": 6537,
      "еп": 6538,
      "арт": 6539,
      "lay": 6540,
      "ۇق": 6541,
      "▁ش": 6542,
      "▁bo'l": 6543,
      "ял": 6544,
      "иял": 6545,
      "▁ئال": 6546,
      "▁كى": 6547,
      "▁жаң": 6548,
      "▁ой": 6549,
      "する": 6550,
      "дер": 6551,
      "\tA": 6552,
      "▁көр": 6553,
      "てい": 6554,
      "еб": 6555,
      "ым": 6556,
      "▁بىل": 6557,
      "uv": 6558,
      "ян": 6559,
      "ім": 6560,
      "tir": 6561,
      "oq": 6562,
      "их": 6563,
      "▁uch": 6564,
      "▁202": 6565,
      "▁at": 6566,
      "оч": 6567,
      "уш": 6568,
      "▁de": 6569,
      "▁د": 6570,
      "▁ئۆ": 6571,
      "уб": 6572,
      "іл": 6573,
      "▁yu": 6574,
      "ич": 6575,
      "ax": 6576,
      "не": 6577,
      "▁O": 6578,
      "том": 6579,
      "▁Х": 6580,
      "اھ": 6581,
      "▁ve": 6582,
      "up": 6583,
      "ele": 6584,
      "аль": 6585,
      "one": 6586,
      "▁گ": 6587,
      "adi": 6588,
      "ать": 6589,
      "▁Ch": 6590,
      "▁قىلى": 6591,
      "ала": 6592,
      "tom": 6593,
      "ран": 6594,
      "ель": 6595,
      "iya": 6596,
      "ېن": 6597,
      "مۇ": 6598,
      "ыкт": 6599,
      "▁от": 6600,
      "▁(1": 6601,
      "▁has": 6602,
      "hat": 6603,
      "ları": 6604,
      "▁va": 6605,
      "▁il": 6606,
      "ының": 6607,
      "ari": 6608,
      "g'": 6609,
      "ında": 6610,
      "▁Т": 6611,
      "▁oy": 6612,
      "дө": 6613,
      "ars": 6614,
      "уп": 6615,
      ".\tA": 6616,
      "▁бир": 6617,
      "▁st": 6618,
      "قا": 6619,
      "▁ба": 6620,
      "▁V": 6621,
      "▁ئۇ": 6622,
      "ür": 6623,
      "▁قىل": 6624,
      "▁ö": 6625,
      "art": 6626,
      "ارى": 6627,
      "▁يا": 6628,
      "ını": 6629,
      "تا": 6630,
      "▁об": 6631,
      "ана": 6632,
      "еле": 6633,
      "ilm": 6634,
      "▁ав": 6635,
      "..": 6636,
      "ент": 6637,
      "man": 6638,
      "▁гол": 6639,
      "▁жар": 6640,
      "ۇل": 6641,
      "uk": 6642,
      "▁6": 6643,
      "▁ko'": 6644,
      "ım": 6645,
      "дің": 6646,
      "ük": 6647,
      "oun": 6648,
      "ール": 6649,
      "ус": 6650,
      "анд": 6651,
      "ue": 6652,
      "onal": 6653,
      "во": 6654,
      "▁адам": 6655,
      "▁со": 6656,
      "ۈن": 6657,
      "▁do": 6658,
      "дин": 6659,
      "▁7": 6660,
      "لەش": 6661,
      "▁مۇسا": 6662,
      "しました。\t": 6663,
      "ма": 6664,
      "った": 6665,
      "аст": 6666,
      "لەر": 6667,
      "оль": 6668,
      "lı": 6669,
      "▁مۇسابى": 6670,
      "▁Н": 6671,
      "етт": 6672,
      "онал": 6673,
      "▁Г": 6674,
      "ho": 6675,
      "\tC": 6676,
      "▁ay": 6677,
      "▁8": 6678,
      "مىسى": 6679,
      "ub": 6680,
      "▁eng": 6681,
      "▁тур": 6682,
      "ный": 6683,
      "▁ар": 6684,
      "анч": 6685,
      "ык": 6686,
      "▁بىلەن": 6687,
      "يى": 6688,
      "▁бар": 6689,
      "үл": 6690,
      "▁ئەڭ": 6691,
      "▁9": 6692,
      "eri": 6693,
      "▁li": 6694,
      "day": 6695,
      "؟\tW": 6696,
      ".\tM": 6697,
      "▁توپ": 6698,
      "ati": 6699,
      "олу": 6700,
      "اپ": 6701,
      "▁команда": 6702,
      "▁ئو": 6703,
      "ですか？\t": 6704,
      "tomobil": 6705,
      "үм": 6706,
      "▁z": 6707,
      "▁из": 6708,
      "▁өз": 6709,
      "▁chi": 6710,
      "yor": 6711,
      "ası": 6712,
      "есси": 6713,
      "▁you": 6714,
      "илли": 6715,
      "ки": 6716,
      "▁ұ": 6717,
      "ine": 6718,
      "ания": 6719,
      "▁мат": 6720,
      "▁по": 6721,
      "10": 6722,
      "▁ма": 6723,
      "iq": 6724,
      "ış": 6725,
      "ör": 6726,
      "202": 6727,
      "ort": 6728,
      "▁will": 6729,
      "дың": 6730,
      "ля": 6731,
      "ist": 6732,
      "ona": 6733,
      "▁قان": 6734,
      "▁te": 6735,
      "af": 6736,
      "سىز": 6737,
      "hone": 6738,
      "eni": 6739,
      "▁үч": 6740,
      "ді.\t": 6741,
      "▁yan": 6742,
      "ېم": 6743,
      "гі": 6744,
      "▁mil": 6745,
      "фон": 6746,
      "uz": 6747,
      "▁ş": 6748,
      "ыш": 6749,
      "essi": 6750,
      "ېس": 6751,
      "▁or": 6752,
      "は、": 6753,
      "ans": 6754,
      "000": 6755,
      "сел": 6756,
      "anch": 6757,
      "ке": 6758,
      "өл": 6759,
      "پت": 6760,
      "ard": 6761,
      "▁И": 6762,
      "ith": 6763,
      "са": 6764,
      "ить": 6765,
      "▁тү": 6766,
      "ۈچ": 6767,
      "dir": 6768,
      "▁chiq": 6769,
      "ань": 6770,
      "こと": 6771,
      "ыт": 6772,
      "ные": 6773,
      "▁милли": 6774,
      "▁ئاي": 6775,
      "ます。\t": 6776,
      "▁ma": 6777,
      "ция": 6778,
      "ады.\t": 6779,
      "▁матч": 6780,
      "▁0": 6781,
      "▁жет": 6782,
      "دىغان": 6783,
      "оналду": 6784,
      "▁Ш": 6785,
      "▁кер": 6786,
      "▁ра": 6787,
      "▁o'y": 6788,
      "үрө": 6789,
      "ис": 6790,
      "وڭ": 6791,
      "ады": 6792,
      "oz": 6793,
      "ле": 6794,
      "▁сат": 6795,
      "▁оюн": 6796,
      "\tB": 6797,
      "mi?\t": 6798,
      "алар": 6799,
      "ци": 6800,
      "\tS": 6801,
      "кы": 6802,
      "ishi": 6803,
      "ation": 6804,
      "▁قو": 6805,
      "吗？\t": 6806,
      "th": 6807,
      "▁ор": 6808,
      "▁12": 6809,
      "▁بىرلەش": 6810,
      "уна": 6811,
      "ош": 6812,
      "▁tak": 6813,
      "▁چى": 6814,
      "▁х": 6815,
      "ない": 6816,
      "adr": 6817,
      "ген": 6818,
      "ыс": 6819,
      "do": 6820,
      "гр": 6821,
      "ush": 6822,
      "الى": 6823,
      "ەس": 6824,
      "▁قى": 6825,
      "▁В": 6826,
      "иш": 6827,
      "лен": 6828,
      "ますか？\t": 6829,
      "▁11": 6830,
      "▁with": 6831,
      "анды": 6832,
      "!\r\n": 6833,
      "ېل": 6834,
      "▁x": 6835,
      "eng": 6836,
      "▁чемпион": 6837,
      "pple": 6838,
      "▁20": 6839,
      "may": 6840,
      "▁Ю": 6841,
      "kin": 6842,
      "ېتى": 6843,
      "amo": 6844,
      "ri": 6845,
      "99": 6846,
      "\tM": 6847,
      "▁ю": 6848,
      "гер": 6849,
      "ali": 6850,
      "▁бас": 6851,
      "▁жең": 6852,
      "она": 6853,
      "ру": 6854,
      "елефон": 6855,
      "▁жары": 6856,
      "ильм": 6857,
      "оз": 6858,
      "▁مۇسابىقى": 6859,
      "ۈش": 6860,
      "▁(2": 6861,
      "ных": 6862,
      "▁pr": 6863,
      "ۈز": 6864,
      "▁av": 6865,
      "ant": 6866,
      "amp": 6867,
      "ما": 6868,
      "▁يېڭى": 6869,
      "ız": 6870,
      "іс": 6871,
      "bol": 6872,
      "▁gol": 6873,
      "▁ل": 6874,
      "▁бір": 6875,
      ".\tS": 6876,
      "üz": 6877,
      "▁son": 6878,
      "▁Le": 6879,
      "ood": 6880,
      "ые": 6881,
      "на": 6882,
      "ーム": 6883,
      "▁ат": 6884,
      "ۇپ": 6885,
      "di.\r\n": 6886,
      "ich": 6887,
      "وب": 6888,
      "uy": 6889,
      "▁كوم": 6890,
      "алық": 6891,
      "ng": 6892,
      "▁ئاپت": 6893,
      "▁Ronal": 6894,
      "▁про": 6895,
      "ind": 6896,
      "кен": 6897,
      "▁bilan": 6898,
      "ha": 6899,
      "▁film": 6900,
      "томоб": 6901,
      "▁uchun": 6902,
      "ші": 6903,
      "dı.\r\n": 6904,
      "ug": 6905,
      "▁yıl": 6906,
      "рид": 6907,
      "ip": 6908,
      "داق": 6909,
      "ida": 6910,
      "▁бер": 6911,
      "▁er": 6912,
      "үз": 6913,
      "ден": 6914,
      "▁as": 6915,
      "ной": 6916,
      "▁ئاپتوم": 6917,
      "уз": 6918,
      "ят": 6919,
      "什么": 6920,
      "ېرى": 6921,
      "дег": 6922,
      "▁Ж": 6923,
      "▁ин": 6924,
      "лер": 6925,
      "▁ең": 6926,
      "cu": 6927,
      "▁телефон": 6928,
      "adrid": 6929,
      "▁Z": 6930,
      "sa": 6931,
      "ター": 6932,
      "▁re": 6933,
      "گەن": 6934,
      "акт": 6935,
      "ilir": 6936,
      "▁ئاپتوموب": 6937,
      "▁Madrid": 6938,
      "ff": 6939,
      "інің": 6940,
      "▁кар": 6941,
      "از": 6942,
      "▁керек": 6943,
      "▁تە": 6944,
      "eb": 6945,
      "ук": 6946,
      "ую": 6947,
      "イン": 6948,
      "all": 6949,
      "\tК": 6950,
      "▁it": 6951,
      "қа": 6952,
      "ht": 6953,
      "▁эң": 6954,
      "лар": 6955,
      "▁con": 6956,
      "▁to'": 6957,
      "арсел": 6958,
      "▁ish": 6959,
      "esi": 6960,
      "адрид": 6961,
      "ەم": 6962,
      "андай": 6963,
      "▁بىرلەشمىسى": 6964,
      "▁بار": 6965,
      "end": 6966,
      "▁play": 6967,
      "iş": 6968,
      "▁Li": 6969,
      "▁қал": 6970,
      "...\t": 6971,
      "▁үчүн": 6972,
      "отор": 6973,
      "▁بو": 6974,
      "isi": 6975,
      "▁эм": 6976,
      "لا": 6977,
      "ark": 6978,
      "ыг": 6979,
      "▁his": 6980,
      "тар": 6981,
      "▁Роналду": 6982,
      "▁жас": 6983,
      "▁oyun": 6984,
      "ۇش": 6985,
      "ate": 6986,
      "ラン": 6987,
      "▁сез": 6988,
      "еч": 6989,
      "▁ойын": 6990,
      "ave": 6991,
      "'l": 6992,
      "int": 6993,
      "▁كومان": 6994,
      "-ئ": 6995,
      "lab": 6996,
      "Phone": 6997,
      "ed.\t": 6998,
      "▁تى": 6999,
      "جى": 7000,
      "ығ": 7001,
      "ld": 7002,
      "ester": 7003,
      "▁ак": 7004,
      "lü": 7005,
      "ерс": 7006,
      "cel": 7007,
      "▁автомоб": 7008,
      "ost": 7009,
      "▁за": 7010,
      "▁ما": 7011,
      "его": 7012,
      "se": 7013,
      "▁Sh": 7014,
      "▁مى": 7015,
      "▁Месси": 7016,
      "\tБ": 7017,
      "ear": 7018,
      "естер": 7019,
      "▁iç": 7020,
      "omi": 7021,
      "▁yuan": 7022,
      "ты.\t": 7023,
      "▁пай": 7024,
      "▁دا": 7025,
      "ei": 7026,
      "しい": 7027,
      "aya": 7028,
      "сп": 7029,
      "▁сво": 7030,
      "▁ü": 7031,
      "▁un": 7032,
      "san": 7033,
      "ڭىز": 7034,
      "leri": 7035,
      "ку": 7036,
      "▁se": 7037,
      "ла": 7038,
      "▁mu": 7039,
      "еск": 7040,
      "ыкты": 7041,
      "▁фильм": 7042,
      "ere": 7043,
      "世界": 7044,
      "▁ئۈچ": 7045,
      "еал": 7046,
      "үмк": 7047,
      "eden": 7048,
      "دىسى": 7049,
      "▁сер": 7050,
      "или": 7051,
      "▁кир": 7052,
      "dam": 7053,
      "▁У": 7054,
      "لۇق": 7055,
      "iyat": 7056,
      "20": 7057,
      "omp": 7058,
      "ынан": 7059,
      "▁Messi": 7060,
      "lash": 7061,
      "▁kad": 7062,
      "▁can": 7063,
      "ore": 7064,
      "алык": 7065,
      "▁мүмк": 7066,
      "chil": 7067,
      "асм": 7068,
      "▁баш": 7069,
      "▁قال": 7070,
      "е?\t": 7071,
      "anchester": 7072,
      "ми": 7073,
      "▁игр": 7074,
      "▁Pro": 7075,
      "уж": 7076,
      "adi.\t": 7077,
      "▁qo'": 7078,
      "ұр": 7079,
      "▁О": 7080,
      "анчестер": 7081,
      "iaomi": 7082,
      "ина": 7083,
      "▁was": 7084,
      "The": 7085,
      "асында": 7086,
      "دۇ\t": 7087,
      "ная": 7088,
      "ima": 7089,
      "▁hay": 7090,
      "▁ham": 7091,
      "tion": 7092,
      "ва": 7093,
      "ung": 7094,
      "ның": 7095,
      "tı.\r\n": 7096,
      "atch": 7097,
      "▁jamo": 7098,
      "▁Ц": 7099,
      "\tА": 7100,
      "▁қат": 7101,
      "idan": 7102,
      "▁котор": 7103,
      "▁مە": 7104,
      "▁Ф": 7105,
      "▁kel": 7106,
      "дыз": 7107,
      "me": 7108,
      "リーグ": 7109,
      "▁-": 7110,
      "تىن": 7111,
      "▁fr": 7112,
      "е,": 7113,
      "fon": 7114,
      "選手": 7115,
      "уч": 7116,
      "▁Q": 7117,
      "▁ex": 7118,
      "utbol": 7119,
      "اڭ": 7120,
      "خى": 7121,
      "ks": 7122,
      "ının": 7123,
      "дагы": 7124,
      "▁фот": 7125,
      "og": 7126,
      "▁not": 7127,
      "▁new": 7128,
      "улар": 7129,
      "мер": 7130,
      "▁are": 7131,
      "▁sc": 7132,
      "eki": 7133,
      "ağ": 7134,
      "чи": 7135,
      "▁kar": 7136,
      "▁15": 7137,
      "▁milli": 7138,
      "▁пл": 7139,
      "▁он": 7140,
      "▁yil": 7141,
      "еттер": 7142,
      "▁o'z": 7143,
      "лем": 7144,
      "▁baş": 7145,
      "▁сүрө": 7146,
      "يون": 7147,
      "ka": 7148,
      "▁көп": 7149,
      "▁был": 7150,
      "▁пер": 7151,
      "▁өт": 7152,
      "▁Мадрид": 7153,
      "▁под": 7154,
      "\tH": 7155,
      "▁ئىش": 7156,
      "ague": 7157,
      "▁bosh": 7158,
      "ına": 7159,
      "よう": 7160,
      "іп": 7161,
      "ese": 7162,
      ":2": 7163,
      "inin": 7164,
      "▁sur": 7165,
      "▁kat": 7166,
      "ロナ": 7167,
      "▁13": 7168,
      "ода": 7169,
      "ика": 7170,
      "▁yangi": 7171,
      "\tС": 7172,
      "oğ": 7173,
      "لىقى": 7174,
      "▁Дж": 7175,
      "ип": 7176,
      "ша": 7177,
      "тал": 7178,
      "elefon": 7179,
      "▁this": 7180,
      ".\tБ": 7181,
      "ン・": 7182,
      "ко": 7183,
      "▁ден": 7184,
      "ист": 7185,
      "▁باش": 7186,
      "كە": 7187,
      "▁тар": 7188,
      "تە": 7189,
      "▁үш": 7190,
      "ах": 7191,
      "te": 7192,
      "▁сп": 7193,
      "land": 7194,
      "▁түр": 7195,
      "▁миллион": 7196,
      "ord": 7197,
      "した。\t": 7198,
      "üş": 7199,
      "дү": 7200,
      "▁эк": 7201,
      "▁سۈر": 7202,
      "бол": 7203,
      "▁нов": 7204,
      "چە": 7205,
      "'nin": 7206,
      "▁he": 7207,
      "▁قانداق": 7208,
      "oc": 7209,
      "▁avtomobil": 7210,
      "كەن": 7211,
      "рем": 7212,
      "ют": 7213,
      "▁yeni": 7214,
      "shi": 7215,
      "ех": 7216,
      "▁tan": 7217,
      "ams": 7218,
      "▁yap": 7219,
      "ۇت": 7220,
      "iyon": 7221,
      "▁бул": 7222,
      "орт": 7223,
      "иров": 7224,
      "▁o'yin": 7225,
      "ten": 7226,
      "にな": 7227,
      "ност": 7228,
      "ach": 7229,
      "▁mum": 7230,
      "inde": 7231,
      "▁ik": 7232,
      "▁car": 7233,
      "チーム": 7234,
      "▁tur": 7235,
      "▁уна": 7236,
      "ы?\t": 7237,
      "▁100": 7238,
      "ingiz": 7239,
      "▁çık": 7240,
      "▁mumkin": 7241,
      "яв": 7242,
      "дун": 7243,
      "oli": 7244,
      "ари": 7245,
      "раф": 7246,
      "ۋى": 7247,
      "ېلى": 7248,
      ".\tK": 7249,
      "▁кр": 7250,
      "▁Лиг": 7251,
      "aw": 7252,
      "▁el": 7253,
      "өт": 7254,
      "▁from": 7255,
      "анды.\t": 7256,
      "▁жат": 7257,
      "эн": 7258,
      "қты": 7259,
      "ью": 7260,
      "گى": 7261,
      "ения": 7262,
      "▁кат": 7263,
      "уль": 7264,
      "پا": 7265,
      "▁takım": 7266,
      "ылар": 7267,
      "if": 7268,
      "▁have": 7269,
      "raf": 7270,
      "▁telefon": 7271,
      ".\tR": 7272,
      "マン": 7273,
      "▁قاي": 7274,
      "Как": 7275,
      "▁ئار": 7276,
      "联赛": 7277,
      "инин": 7278,
      "▁ز": 7279,
      "emp": 7280,
      "اس": 7281,
      "ного": 7282,
      "ji": 7283,
      "еген": 7284,
      "▁osh": 7285,
      "ecek": 7286,
      "▁жариял": 7287,
      "ро": 7288,
      "\tN": 7289,
      "\tП": 7290,
      "▁mi": 7291,
      "атын": 7292,
      "anday": 7293,
      "үш": 7294,
      "▁tr": 7295,
      "▁كۆر": 7296,
      "ity": 7297,
      "でき": 7298,
      "лив": 7299,
      "▁жаңа": 7300,
      "ете": 7301,
      "▁been": 7302,
      "ктер": 7303,
      "рам": 7304,
      "▁жана": 7305,
      "ast": 7306,
      "ум": 7307,
      "▁оюнч": 7308,
      "汽车": 7309,
      "▁ف": 7310,
      "ップ": 7311,
      "▁كەل": 7312,
      "▁res": 7313,
      "дор": 7314,
      "▁қар": 7315,
      "ейт": 7316,
      "ial": 7317,
      "▁futbol": 7318,
      "айл": 7319,
      "mer": 7320,
      "دۇ؟\t": 7321,
      "ыст": 7322,
      "▁лю": 7323,
      "'ın": 7324,
      "▁دۇ": 7325,
      "▁күн": 7326,
      "رو": 7327,
      "▁жаш": 7328,
      "▁14": 7329,
      "alı": 7330,
      "اسى": 7331,
      "gar": 7332,
      "s.\t": 7333,
      "дегі": 7334,
      "\tD": 7335,
      "ディ": 7336,
      "ome": 7337,
      "ему": 7338,
      "اتى": 7339,
      "eli": 7340,
      "сыз": 7341,
      "▁та": 7342,
      "球员": 7343,
      "があ": 7344,
      "анын": 7345,
      "ни": 7346,
      "app": 7347,
      "\tCBA": 7348,
      "ьер": 7349,
      "ард": 7350,
      "еж": 7351,
      "алды": 7352,
      "дай": 7353,
      ".\tT": 7354,
      "ств": 7355,
      ".\tH": 7356,
      "ている": 7357,
      "дік": 7358,
      "▁сезон": 7359,
      "▁кай": 7360,
      "▁ئېلان": 7361,
      "▁sp": 7362,
      "ік": 7363,
      "▁that": 7364,
      "▁жарыял": 7365,
      "\tThe": 7366,
      "ep": 7367,
      "▁le": 7368,
      "▁In": 7369,
      "▁Э": 7370,
      "▁نە": 7371,
      ".\tY": 7372,
      "ladi": 7373,
      "moq": 7374,
      "スター": 7375,
      "▁بە": 7376,
      "▁su": 7377,
      "üy": 7378,
      "▁مۇسابىقىسى": 7379,
      "▁im": 7380,
      "инг": 7381,
      "ча": 7382,
      "асынын": 7383,
      "▁gel": 7384,
      "ew": 7385,
      "ket": 7386,
      "اۋ": 7387,
      "old": 7388,
      "арселона": 7389,
      "дағы": 7390,
      "لىنى": 7391,
      "\tI": 7392,
      "▁жаңы": 7393,
      "iyor": 7394,
      "▁комп": 7395,
      "гө": 7396,
      "▁кол": 7397,
      "пай": 7398,
      "▁pro": 7399,
      "比赛": 7400,
      "ika": 7401,
      "yon": 7402,
      "si": 7403,
      "スト": 7404,
      "▁раз": 7405,
      "▁شى": 7406,
      "ティ": 7407,
      "▁qay": 7408,
      "ilan": 7409,
      "'t": 7410,
      "これ": 7411,
      "үк": 7412,
      "ーズ": 7413,
      "\tR": 7414,
      "▁fot": 7415,
      "▁юань": 7416,
      "▁(2)\t": 7417,
      "▁سۈرەت": 7418,
      "▁кет": 7419,
      "▁yax": 7420,
      "hy": 7421,
      "▁Юн": 7422,
      "ayı": 7423,
      "arcel": 7424,
      "▁bor": 7425,
      "▁ۋە": 7426,
      "гү": 7427,
      "なた": 7428,
      "гон": 7429,
      "▁qanday": 7430,
      "▁who": 7431,
      "ece": 7432,
      "قۇ": 7433,
      "▁кор": 7434,
      "から": 7435,
      "▁адамдар": 7436,
      "▁يىل": 7437,
      "▁ئاش": 7438,
      "lam": 7439,
      "ット": 7440,
      "▁بى": 7441,
      "▁дол": 7442,
      "▁oldu": 7443,
      "унун": 7444,
      "ылды.\t": 7445,
      "▁кий": 7446,
      "50": 7447,
      "11": 7448,
      "されました。\t": 7449,
      "?\tB": 7450,
      "▁шығ": 7451,
      "ッシ": 7452,
      "▁top": 7453,
      "▁team": 7454,
      "of": 7455,
      "ön": 7456,
      "▁і": 7457,
      "▁бил": 7458,
      "\tТ": 7459,
      "ется": 7460,
      "▁için": 7461,
      "len": 7462,
      "女性": 7463,
      "لۈ": 7464,
      "▁игрок": 7465,
      "▁лиг": 7466,
      "рав": 7467,
      "▁uz": 7468,
      "ara": 7469,
      "たち": 7470,
      "ۇس": 7471,
      "ейм": 7472,
      "写真": 7473,
      "▁кыз": 7474,
      "ограф": 7475,
      "この": 7476,
      "ئى": 7477,
      "▁مىل": 7478,
      "▁سى": 7479,
      "mas": 7480,
      "▁ма?\t": 7481,
      "قىرى": 7482,
      "▁құ": 7483,
      "arcelona": 7484,
      "ттөр": 7485,
      "ced": 7486,
      "аңыз": 7487,
      "▁Real": 7488,
      "▁болду": 7489,
      "▁(1)\t": 7490,
      "▁пайда": 7491,
      ":0": 7492,
      "-т": 7493,
      "йел": 7494,
      "؟\tWhat": 7495,
      "▁ئەر": 7496,
      "инчи": 7497,
      "аг": 7498,
      "uld": 7499,
      "▁ev": 7500,
      "كار": 7501,
      "иб": 7502,
      "دەم": 7503,
      "өрт": 7504,
      "ەۋ": 7505,
      "して": 7506,
      "ct": 7507,
      "нов": 7508,
      "كا": 7509,
      "\tG": 7510,
      "▁так": 7511,
      "▁чыг": 7512,
      "▁kal": 7513,
      "оң": 7514,
      "инь": 7515,
      "ori": 7516,
      "▁үй": 7517,
      "▁yet": 7518,
      "aba": 7519,
      "-ئاي": 7520,
      "▁League": 7521,
      "つの": 7522,
      "▁تې": 7523,
      "▁ed": 7524,
      "▁değ": 7525,
      "ive": 7526,
      "▁көрс": 7527,
      "▁ön": 7528,
      "▁сүрөттөр": 7529,
      "▁жо": 7530,
      "ı.\r\n": 7531,
      "ace": 7532,
      "発表": 7533,
      "сын": 7534,
      "▁sot": 7535,
      "▁Pr": 7536,
      "▁chiqar": 7537,
      "可能": 7538,
      "▁кон": 7539,
      "ение": 7540,
      "▁рек": 7541,
      "lac": 7542,
      "our": 7543,
      "دو": 7544,
      "үйн": 7545,
      "▁كوماندىسى": 7546,
      "ила": 7547,
      "▁Реал": 7548,
      "▁iy": 7549,
      "あなた": 7550,
      "▁go": 7551,
      "siz": 7552,
      "уреттер": 7553,
      "▁gör": 7554,
      "مىز": 7555,
      "\tO": 7556,
      "ەپ": 7557,
      "ック": 7558,
      "▁ئور": 7559,
      "ina": 7560,
      "\tF": 7561,
      "▁30": 7562,
      "\tL": 7563,
      "تۇر": 7564,
      "ian": 7565,
      "tal": 7566,
      "▁oyuncu": 7567,
      "▁Manchester": 7568,
      "قان": 7569,
      "Жер": 7570,
      "▁ko'r": 7571,
      "دان": 7572,
      "ated": 7573,
      "іне": 7574,
      "▁тр": 7575,
      "▁Манчестер": 7576,
      "▁tari": 7577,
      "▁maç": 7578,
      "кан": 7579,
      "▁Е": 7580,
      "▁wh": 7581,
      "empion": 7582,
      "ых": 7583,
      "етті": 7584,
      "▁жақ": 7585,
      "12": 7586,
      "mak": 7587,
      "▁пос": 7588,
      "тыр": 7589,
      "ame": 7590,
      "інде": 7591,
      "نيا": 7592,
      "غۇ": 7593,
      "'in": 7594,
      "ану": 7595,
      ":3": 7596,
      "uldu": 7597,
      "ېي": 7598,
      "орд": 7599,
      "\tМ": 7600,
      "▁Ronaldo": 7601,
      "لاش": 7602,
      "▁يۇ": 7603,
      "тын": 7604,
      "дық": 7605,
      "orld": 7606,
      "▁ph": 7607,
      "oğraf": 7608,
      "ould": 7609,
      "▁қыз": 7610,
      "▁что": 7611,
      "▁erk": 7612,
      "erak": 7613,
      "چىل": 7614,
      "ейін": 7615,
      "▁CBA": 7616,
      "▁uy": 7617,
      "her": 7618,
      "али": 7619,
      "uaw": 7620,
      "دى\tThe": 7621,
      "ред": 7622,
      "▁تۆ": 7623,
      "▁вс": 7624,
      "▁neden": 7625,
      "ンの": 7626,
      "айтед": 7627,
      "▁so": 7628,
      "映画": 7629,
      "▁Юнайтед": 7630,
      "った。\t": 7631,
      "▁دۇنيا": 7632,
      "ょう": 7633,
      "▁кез": 7634,
      "▁сам": 7635,
      "▁qol": 7636,
      "ook": 7637,
      "▁мож": 7638,
      "しょう": 7639,
      "▁для": 7640,
      "▁by": 7641,
      "▁bec": 7642,
      "еу": 7643,
      "▁сүй": 7644,
      ".\tD": 7645,
      "▁эт": 7646,
      "▁заб": 7647,
      "uawei": 7648,
      "試合": 7649,
      "өм": 7650,
      "Xiaomi": 7651,
      "iga": 7652,
      "cha": 7653,
      "ğı": 7654,
      "カー": 7655,
      "▁iPhone": 7656,
      "▁باھ": 7657,
      "amsung": 7658,
      "aning": 7659,
      "üm": 7660,
      "ason": 7661,
      "▁ket": 7662,
      "'nın": 7663,
      "\tK": 7664,
      "\tР": 7665,
      "ッド": 7666,
      "ماي": 7667,
      "▁өл": 7668,
      "▁ann": 7669,
      "лік": 7670,
      "▁مەي": 7671,
      "▁kerak": 7672,
      "ren": 7673,
      "▁كىر": 7674,
      "оо": 7675,
      "out": 7676,
      "▁ber": 7677,
      "?\tN": 7678,
      "ell": 7679,
      "iyas": 7680,
      "сым": 7681,
      "▁|": 7682,
      "アル": 7683,
      "▁ver": 7684,
      "▁yaxshi": 7685,
      "▁жак": 7686,
      "▁yaş": 7687,
      "▁fir": 7688,
      "-ж": 7689,
      "▁бел": 7690,
      "'lon": 7691,
      "▁ер": 7692,
      "▁نېم": 7693,
      "ect": 7694,
      "iniz": 7695,
      "ildi.\t": 7696,
      "lig": 7697,
      "▁fotoğraf": 7698,
      "үг": 7699,
      "▁e'lon": 7700,
      "▁ئاپتوموبىل": 7701,
      "aç": 7702,
      "son": 7703,
      "ği": 7704,
      "最も": 7705,
      "مان": 7706,
      "ani": 7707,
      "▁16": 7708,
      "لىشى": 7709,
      "ジェ": 7710,
      "▁иш": 7711,
      "لىكى": 7712,
      "▁ak": 7713,
      "انى": 7714,
      "▁Ligi": 7715,
      "fic": 7716,
      "\tЖ": 7717,
      "ve": 7718,
      "▁قوي": 7719,
      "laş": 7720,
      "チェ": 7721,
      "ست": 7722,
      "▁ta": 7723,
      "▁million": 7724,
      "ник": 7725,
      "odel": 7726,
      "▁Я": 7727,
      "▁قات": 7728,
      "▁таб": 7729,
      "电影": 7730,
      "チャ": 7731,
      "inc": 7732,
      "erma": 7733,
      "еге": 7734,
      "▁жен": 7735,
      "た。\t": 7736,
      "▁daha": 7737,
      "ry": 7738,
      "ge": 7739,
      "30": 7740,
      "lık": 7741,
      "alik": 7742,
      "▁ger": 7743,
      "发布": 7744,
      "ern": 7745,
      "▁сатып": 7746,
      "▁ek": 7747,
      "▁vers": 7748,
      "▁har": 7749,
      "итель": 7750,
      "inchi": 7751,
      "▁sür": 7752,
      "▁уч": 7753,
      "фи": 7754,
      "▁жол": 7755,
      "larni": 7756,
      "ющ": 7757,
      "▁surat": 7758,
      "19": 7759,
      "гөн": 7760,
      "ass": 7761,
      "▁comp": 7762,
      "▁кл": 7763,
      "▁sev": 7764,
      "han": 7765,
      "▁çok": 7766,
      "これら": 7767,
      "tur": 7768,
      "ид": 7769,
      "▁qilin": 7770,
      "どの": 7771,
      "лект": 7772,
      "tar": 7773,
      "▁tush": 7774,
      "ونى": 7775,
      "ков": 7776,
      "уы": 7777,
      "'da": 7778,
      "▁دە": 7779,
      "▁сал": 7780,
      "▁büy": 7781,
      "▁кал": 7782,
      "です。\t": 7783,
      "?\tA": 7784,
      "خشى": 7785,
      "▁қай": 7786,
      "асын": 7787,
      "ағ": 7788,
      "эй": 7789,
      "ее": 7790,
      "FA": 7791,
      "ман": 7792,
      "гиз": 7793,
      "▁your": 7794,
      "如果": 7795,
      "qu": 7796,
      "كىن": 7797,
      "\tН": 7798,
      "دى\tA": 7799,
      "аж": 7800,
      "最新": 7801,
      "▁scor": 7802,
      "▁Milan": 7803,
      "▁bel": 7804,
      "▁жә": 7805,
      ".\tG": 7806,
      "▁mı": 7807,
      "ların": 7808,
      "sel": 7809,
      "цз": 7810,
      "ませ": 7811,
      "ами": 7812,
      "ti.\r\n": 7813,
      "ight": 7814,
      "нын": 7815,
      "▁там": 7816,
      "▁ек": 7817,
      "▁ئۈچۈن": 7818,
      "▁аз": 7819,
      "туу": 7820,
      "▁yar": 7821,
      "▁Сен": 7822,
      "UV": 7823,
      "orm": 7824,
      "▁kir": 7825,
      "▁ab": 7826,
      "кө": 7827,
      "дон": 7828,
      "раз": 7829,
      "▁аш": 7830,
      "den": 7831,
      "▁ھە": 7832,
      "xi": 7833,
      "▁кыл": 7834,
      "قتى": 7835,
      "inal": 7836,
      "ەتتى": 7837,
      "▁Цз": 7838,
      "ەسى": 7839,
      "▁dav": 7840,
      "esla": 7841,
      "▁lig": 7842,
      "ىن": 7843,
      "▁مۇن": 7844,
      "▁باي": 7845,
      "ۋال": 7846,
      "▁us": 7847,
      "ited": 7848,
      "ません": 7849,
      "▁ئايال": 7850,
      "\tE": 7851,
      "enz": 7852,
      "▁Ли": 7853,
      "▁фотограф": 7854,
      "аск": 7855,
      "\tY": 7856,
      "ファ": 7857,
      "ария": 7858,
      "▁خىل": 7859,
      "wood": 7860,
      "اھى": 7861,
      "бр": 7862,
      "▁(3": 7863,
      "а,": 7864,
      "▁оч": 7865,
      "▁кү": 7866,
      "▁деп": 7867,
      "ート": 7868,
      "▁چوڭ": 7869,
      "▁және": 7870,
      "▁بې": 7871,
      "очему": 7872,
      "let": 7873,
      "ۈپ": 7874,
      "▁ilk": 7875,
      "▁жог": 7876,
      "ram": 7877,
      "\tИ": 7878,
      "▁tar": 7879,
      "▁نېمە": 7880,
      "отр": 7881,
      "лед": 7882,
      "▁шығар": 7883,
      "sum": 7884,
      "▁aç": 7885,
      "▁қол": 7886,
      "▁буд": 7887,
      "tra": 7888,
      "-Жер": 7889,
      "?\tЭ": 7890,
      "e.\t": 7891,
      "\tД": 7892,
      "ous": 7893,
      "なぜ": 7894,
      "-Жермен": 7895,
      "▁Ar": 7896,
      "ory": 7897,
      "ېسسى": 7898,
      "ەھ": 7899,
      "ank": 7900,
      "▁командасы": 7901,
      "imiz": 7902,
      "▁o'r": 7903,
      "▁kadar": 7904,
      "ンピ": 7905,
      "▁mus": 7906,
      "▁ile": 7907,
      "бор": 7908,
      "▁iyi": 7909,
      "▁rek": 7910,
      "▁өн": 7911,
      "▁بولى": 7912,
      "ollar": 7913,
      "уг": 7914,
      "▁ми": 7915,
      "lu": 7916,
      "асс": 7917,
      "▁ц": 7918,
      "entus": 7919,
      "uventus": 7920,
      "▁ту": 7921,
      "▁кийин": 7922,
      "-y": 7923,
      "aris": 7924,
      "为什么": 7925,
      "▁مەيدان": 7926,
      "▁mav": 7927,
      "▁Чж": 7928,
      "eop": 7929,
      "ampiyon": 7930,
      "би": 7931,
      "циаль": 7932,
      "Chat": 7933,
      "нан": 7934,
      "▁يۈ": 7935,
      "chilar": 7936,
      "▁ur": 7937,
      "acak": 7938,
      "утбол": 7939,
      "▁these": 7940,
      "яр": 7941,
      "▁киргиз": 7942,
      "вент": 7943,
      "▁оор": 7944,
      ".\tBu": 7945,
      "▁سېتى": 7946,
      "ыңыз": 7947,
      "есі": 7948,
      "▁mi?\r\n": 7949,
      "▁Sa": 7950,
      ".\tК": 7951,
      "lem": 7952,
      "▁Un": 7953,
      "▁Сен-Жермен": 7954,
      "▁ياش": 7955,
      "ня": 7956,
      "оллив": 7957,
      "▁жал": 7958,
      "ېرەك": 7959,
      "▁бал": 7960,
      "\tО": 7961,
      "شقا": 7962,
      "uch": 7963,
      "▁İ": 7964,
      "ampion": 7965,
      "▁ko'p": 7966,
      "▁kaz": 7967,
      "▁her": 7968,
      "▁sat": 7969,
      "unu": 7970,
      "ント": 7971,
      "▁бұл": 7972,
      "▁phot": 7973,
      "لارنىڭ": 7974,
      "でしょう": 7975,
      "▁Ин": 7976,
      "▁бағ": 7977,
      "дуу": 7978,
      "edi": 7979,
      ".\tL": 7980,
      "مۇ؟\t": 7981,
      "әр": 7982,
      "▁как": 7983,
      "رىش": 7984,
      "lat": 7985,
      "انلىق": 7986,
      "ікт": 7987,
      "eople": 7988,
      "梅西": 7989,
      "БА": 7990,
      "メッシ": 7991,
      "ېمپى": 7992,
      "ектер": 7993,
      "und": 7994,
      "ilmi": 7995,
      "уст": 7996,
      "يىن": 7997,
      "рк": 7998,
      "▁50": 7999,
      "▁ес": 8000,
      "илан": 8001,
      "uan": 8002,
      "ьш": 8003,
      "▁چېمپى": 8004,
      "公開": 8005,
      "akat": 8006,
      "ونال": 8007,
      "▁first": 8008,
      "▁announ": 8009,
      "ロナウ": 8010,
      "How": 8011,
      "?\tS": 8012,
      "▁ақ": 8013,
      "ту": 8014,
      "▁З": 8015,
      "▁مېسسى": 8016,
      "Ch": 8017,
      "▁ئاپتوموبىلى": 8018,
      "▁әйел": 8019,
      "ladi.\t": 8020,
      "▁yak": 8021,
      "ligi": 8022,
      "iyasi": 8023,
      "інші": 8024,
      "ач": 8025,
      "▁болгон": 8026,
      "新疆": 8027,
      "аусым": 8028,
      "ano": 8029,
      "eChat": 8030,
      "▁pay": 8031,
      "▁Sp": 8032,
      "▁odam": 8033,
      "▁رونال": 8034,
      "uti": 8035,
      "ishni": 8036,
      "▁man": 8037,
      "\tP": 8038,
      "asm": 8039,
      "▁siz": 8040,
      "öz": 8041,
      "бап": 8042,
      "ара": 8043,
      "オン": 8044,
      "lywood": 8045,
      "ۇم": 8046,
      "▁دى": 8047,
      "▁пол": 8048,
      "ۇڭ": 8049,
      "▁Чемпион": 8050,
      "▁түс": 8051,
      "▁төрт": 8052,
      "ы:": 8053,
      "жаң": 8054,
      "ロナウド": 8055,
      "i:": 8056,
      "▁тасм": 8057,
      "oh": 8058,
      "▁осы": 8059,
      "さい": 8060,
      "хен": 8061,
      "▁NBA": 8062,
      "▁кан": 8063,
      "елов": 8064,
      "一个": 8065,
      "eş": 8066,
      "дал": 8067,
      "▁автомобиль": 8068,
      "ىلان": 8069,
      "ماق": 8070,
      "?\tБ": 8071,
      "▁كېرەك": 8072,
      "dü": 8073,
      "ful": 8074,
      "▁قىلدى\t": 8075,
      "って": 8076,
      "▁жүр": 8077,
      "▁رونالدو": 8078,
      "▁см": 8079,
      "▁An": 8080,
      "▁قار": 8081,
      "▁يان": 8082,
      "ылды": 8083,
      "ять": 8084,
      "لىتى": 8085,
      "ran": 8086,
      "-ي": 8087,
      "di!\t": 8088,
      "▁چېمپىيون": 8089,
      "ne": 8090,
      "▁мод": 8091,
      "ilgan": 8092,
      "چىلار": 8093,
      "tin": 8094,
      "▁qiz": 8095,
      "пе": 8096,
      "ree": 8097,
      "Почему": 8098,
      "ünya": 8099,
      "▁кин": 8100,
      "▁چول": 8101,
      "lk": 8102,
      "zal": 8103,
      "уға": 8104,
      "unda": 8105,
      "го": 8106,
      "angi": 8107,
      "▁мүмкін": 8108,
      "▁маусым": 8109,
      "учш": 8110,
      "eleas": 8111,
      "ild": 8112,
      "▁үз": 8113,
      "▁دۆ": 8114,
      "ындағы": 8115,
      "▁qar": 8116,
      "▁аял": 8117,
      "▁биринчи": 8118,
      "те": 8119,
      "ылы": 8120,
      "▁ос": 8121,
      "▁себ": 8122,
      "▁ала": 8123,
      "▁am": 8124,
      "ゴール": 8125,
      "қы": 8126,
      "ени": 8127,
      "▁par": 8128,
      "غى": 8129,
      "▁18": 8130,
      "▁قىلىن": 8131,
      "我们": 8132,
      "чу": 8133,
      "照片": 8134,
      "ыркы": 8135,
      "▁تۇر": 8136,
      "▁болот": 8137,
      "лім": 8138,
      "▁bo": 8139,
      "ическ": 8140,
      "のですか？\t": 8141,
      "ание": 8142,
      "asida": 8143,
      "▁ياخشى": 8144,
      "▁мүмкүн": 8145,
      "етін": 8146,
      "▁كىن": 8147,
      "▁men": 8148,
      "しました": 8149,
      "▁кандай": 8150,
      "▁фин": 8151,
      "олог": 8152,
      "ıs": 8153,
      "bapp": 8154,
      "دۇ؟\tW": 8155,
      "-G": 8156,
      "リア": 8157,
      "қан": 8158,
      "フォ": 8159,
      "іздің": 8160,
      "ング": 8161,
      "▁жолу": 8162,
      "ada": 8163,
      "▁Ş": 8164,
      "ۈل": 8165,
      "ollywood": 8166,
      "?\tК": 8167,
      "▁otomobil": 8168,
      "ги": 8169,
      "يان": 8170,
      "▁dur": 8171,
      "ېك": 8172,
      "tern": 8173,
      "нг": 8174,
      "▁match": 8175,
      "▁releas": 8176,
      "▁св": 8177,
      "ена": 8178,
      ".\tO": 8179,
      "があり": 8180,
      "кер": 8181,
      "ound": 8182,
      "олько": 8183,
      "ба": 8184,
      "asıl": 8185,
      "ors": 8186,
      "есс": 8187,
      "男性": 8188,
      "ezon": 8189,
      "لىش": 8190,
      "чү": 8191,
      "▁ئادەم": 8192,
      "▁most": 8193,
      "esh": 8194,
      "را": 8195,
      "mek": 8196,
      "ине": 8197,
      "シーズ": 8198,
      "▁ياۋ": 8199,
      "▁Saint": 8200,
      "▁то": 8201,
      ".\tМ": 8202,
      "▁болды.\t": 8203,
      "▁goal": 8204,
      "роп": 8205,
      "▁мыкты": 8206,
      "гил": 8207,
      "ンは": 8208,
      "lib": 8209,
      "▁düş": 8210,
      "▁будет": 8211,
      "ris": 8212,
      "▁سىز": 8213,
      "▁чемпионат": 8214,
      "ili": 8215,
      "▁Gal": 8216,
      "▁эти": 8217,
      "үндө": 8218,
      "▁haq": 8219,
      "ещ": 8220,
      "▁оп": 8221,
      "ұлдыз": 8222,
      "▁25": 8223,
      "▁Saint-G": 8224,
      "▁ئام": 8225,
      "مە": 8226,
      "▁ac": 8227,
      "axy": 8228,
      "hur": 8229,
      "▁Saint-Germa": 8230,
      "?\tK": 8231,
      "юнхен": 8232,
      "ver": 8233,
      "▁кейін": 8234,
      "▁Saint-Germain": 8235,
      "п,": 8236,
      "▁people": 8237,
      "▁kas": 8238,
      "ېتىم": 8239,
      "стр": 8240,
      "нал": 8241,
      "▁United": 8242,
      "сли": 8243,
      "ud": 8244,
      "▁Apple": 8245,
      "iler": 8246,
      "▁юан": 8247,
      "▁تەر": 8248,
      "▁كۆپ": 8249,
      "ным": 8250,
      "udi": 8251,
      "bor": 8252,
      "▁чыкты": 8253,
      "くだ": 8254,
      "ущ": 8255,
      "▁yük": 8256,
      "手机": 8257,
      ".\tА": 8258,
      "ное": 8259,
      "قىسى": 8260,
      "▁ser": 8261,
      "уну": 8262,
      "史上": 8263,
      "▁يانف": 8264,
      "▁gir": 8265,
      "ください": 8266,
      "\tВ": 8267,
      "ульт": 8268,
      "ант": 8269,
      "ونا": 8270,
      "fer": 8271,
      "мір": 8272,
      "larning": 8273,
      "ели": 8274,
      "es.\t": 8275,
      "▁таң": 8276,
      "・マ": 8277,
      "▁ау": 8278,
      "mp": 8279,
      "▁жогор": 8280,
      "тың": 8281,
      "▁автомобил": 8282,
      "нам": 8283,
      "▁наш": 8284,
      "▁yo'": 8285,
      "▁үшін": 8286,
      "іңіз": 8287,
      "лия": 8288,
      "▁пред": 8289,
      "emi": 8290,
      "▁5G": 8291,
      "▁1-": 8292,
      "罗纳": 8293,
      "▁la": 8294,
      "вентус": 8295,
      "ғары": 8296,
      ".\tP": 8297,
      "▁mavsum": 8298,
      "вест": 8299,
      "▁key": 8300,
      "unuz": 8301,
      "еді.\t": 8302,
      "▁17": 8303,
      "▁Al": 8304,
      "▁ач": 8305,
      "tü": 8306,
      "елер": 8307,
      "▁hal": 8308,
      "try": 8309,
      "▁tek": 8310,
      "ىلەر": 8311,
      "асмий": 8312,
      "▁rev": 8313,
      "▁сүрөттөрү": 8314,
      "kor": 8315,
      "ose": 8316,
      "لۈك": 8317,
      "▁büyük": 8318,
      "иясы": 8319,
      "мат": 8320,
      "men": 8321,
      "фициаль": 8322,
      "كۈ": 8323,
      "▁mash": 8324,
      "▁توپچى": 8325,
      "了。\t": 8326,
      "罗纳尔": 8327,
      "оу": 8328,
      "▁Barcelona": 8329,
      "ındaki": 8330,
      "られ": 8331,
      "▁пок": 8332,
      "adigan": 8333,
      "▁vs": 8334,
      "▁insan": 8335,
      "'y": 8336,
      "دار": 8337,
      "▁чыгар": 8338,
      "tic": 8339,
      "ulduz": 8340,
      "aman": 8341,
      "ime": 8342,
      "ely": 8343,
      "▁yosh": 8344,
      "di.\tБ": 8345,
      ":10": 8346,
      "ەتلىك": 8347,
      "▁قوش": 8348,
      "ход": 8349,
      "авария": 8350,
      "▁Мюнхен": 8351,
      "▁one": 8352,
      "олливуд": 8353,
      "▁kul": 8354,
      "asiz": 8355,
      "18": 8356,
      "асының": 8357,
      "▁birinchi": 8358,
      "▁ort": 8359,
      "▁سۈرەتلىرى": 8360,
      "ota": 8361,
      "▁بولغان": 8362,
      "есми": 8363,
      "▁The": 8364,
      "ити": 8365,
      "ladı.\r\n": 8366,
      "罗纳尔多": 8367,
      "バル": 8368,
      "▁af": 8369,
      "▁аб": 8370,
      "▁VS": 8371,
      "16": 8372,
      "成为": 8373,
      "▁ياۋرو": 8374,
      "▁40": 8375,
      "▁үл": 8376,
      "өз": 8377,
      "▁лет": 8378,
      "▁қандай": 8379,
      "▁mar": 8380,
      "üzel": 8381,
      "igh": 8382,
      "ide": 8383,
      "▁бес": 8384,
      "\tW": 8385,
      "▁nasıl": 8386,
      "▁qilish": 8387,
      "▁photos": 8388,
      "циял": 8389,
      "▁old": 8390,
      "sa,": 8391,
      "▁po": 8392,
      "▁тарт": 8393,
      "▁Барселона": 8394,
      "unch": 8395,
      "уреттері": 8396,
      "лет": 8397,
      "▁жок": 8398,
      "ое": 8399,
      "now": 8400,
      "тан": 8401,
      "стор": 8402,
      "プレ": 8403,
      "дары": 8404,
      "▁bo'lgan": 8405,
      "درى": 8406,
      "ョン": 8407,
      "▁filmi": 8408,
      "▁Милан": 8409,
      "di,": 8410,
      "ېت": 8411,
      "▁футбол": 8412,
      "▁Ар": 8413,
      "▁كىنو": 8414,
      "▁كۈ": 8415,
      "imi": 8416,
      "40": 8417,
      "арл": 8418,
      "▁эмне": 8419,
      "15": 8420,
      "▁كېيىن": 8421,
      "انت": 8422,
      "тық": 8423,
      "▁алды.\t": 8424,
      "▁Lig": 8425,
      "▁sah": 8426,
      ".\tN": 8427,
      "ьер-": 8428,
      "ber": 8429,
      "вез": 8430,
      "Do": 8431,
      "су": 8432,
      "▁kun": 8433,
      "德里": 8434,
      "\"\"": 8435,
      "▁قېتىم": 8436,
      "▁jamoasi": 8437,
      "оном": 8438,
      "▁ئوي": 8439,
      "▁يەن": 8440,
      "▁ан": 8441,
      "▁app": 8442,
      "▁ая": 8443,
      "ца": 8444,
      "шылар": 8445,
      "▁авт": 8446,
      "рат": 8447,
      "تۈر": 8448,
      "ины": 8449,
      "ilar": 8450,
      "تىس": 8451,
      ".\tJ": 8452,
      "▁scored": 8453,
      "▁we": 8454,
      "▁элект": 8455,
      "ること": 8456,
      "▁жұлдыз": 8457,
      "sp": 8458,
      "мне": 8459,
      "پان": 8460,
      "▁жақсы": 8461,
      "ID": 8462,
      "▁рекорд": 8463,
      "▁21": 8464,
      "анк": 8465,
      "дук": 8466,
      "▁kon": 8467,
      "▁жылдыз": 8468,
      "tan": 8469,
      "siy": 8470,
      "▁gü": 8471,
      "▁coun": 8472,
      "еловек": 8473,
      "▁лига": 8474,
      "▁گېر": 8475,
      "до": 8476,
      "ууга": 8477,
      "▁қан": 8478,
      "▁غ": 8479,
      "▁қалай": 8480,
      "▁Ал": 8481,
      "▁де": 8482,
      "огда": 8483,
      "▁Пари": 8484,
      "тап": 8485,
      "uang": 8486,
      "لىۋ": 8487,
      "▁муж": 8488,
      "үнүн": 8489,
      ".\tE": 8490,
      "uq": 8491,
      "▁يۈەن": 8492,
      "▁yulduz": 8493,
      "▁مان": 8494,
      "oyota": 8495,
      "ような": 8496,
      "фф": 8497,
      "ومۇر": 8498,
      "mey": 8499,
      "سىيە": 8500,
      "arsel": 8501,
      "▁nar": 8502,
      "▁چولپان": 8503,
      "uh": 8504,
      "▁offic": 8505,
      "a,": 8506,
      "گۈز": 8507,
      "▁تۇ": 8508,
      "убог": 8509,
      "▁dön": 8510,
      "yor.\r\n": 8511,
      "▁тал": 8512,
      "▁компания": 8513,
      "iPhone": 8514,
      "MW": 8515,
      "▁SUV": 8516,
      "dız": 8517,
      "-б": 8518,
      "▁may": 8519,
      "цзян": 8520,
      "▁«ئ": 8521,
      "▁көз": 8522,
      "uş": 8523,
      "▁if": 8524,
      "yo": 8525,
      "deki": 8526,
      "ской": 8527,
      "ерм": 8528,
      "▁жұ": 8529,
      "ындагы": 8530,
      "ский": 8531,
      "▁года": 8532,
      "▁qildi.\t": 8533,
      "参加": 8534,
      "▁ئىك": 8535,
      "▁plan": 8536,
      "PO": 8537,
      "▁19": 8538,
      "dır": 8539,
      "注意": 8540,
      "ice": 8541,
      "der": 8542,
      "ovi": 8543,
      "▁ойыншы": 8544,
      "▁piyas": 8545,
      "▁aş": 8546,
      "▁دې": 8547,
      "нер": 8548,
      "▁ad": 8549,
      "унд": 8550,
      "▁ye": 8551,
      "ünü": 8552,
      "سېل": 8553,
      "дык": 8554,
      "ows": 8555,
      "▁o't": 8556,
      "ции": 8557,
      "риш": 8558,
      "▁nima": 8559,
      "▁команд": 8560,
      "үйнө": 8561,
      "اك": 8562,
      "تېر": 8563,
      "бы?\t": 8564,
      "▁em": 8565,
      "▁wom": 8566,
      "са,": 8567,
      "ғаш": 8568,
      "\t202": 8569,
      "OS": 8570,
      "▁ھاي": 8571,
      "▁может": 8572,
      "チャンピ": 8573,
      "تىكى": 8574,
      "リード": 8575,
      "унда": 8576,
      "In": 8577,
      "ень": 8578,
      "ықты": 8579,
      "▁(4": 8580,
      "سىنى": 8581,
      "▁юаней": 8582,
      "сті": 8583,
      "13": 8584,
      "▁сый": 8585,
      "ってい": 8586,
      "ite": 8587,
      "▁so'": 8588,
      "21": 8589,
      "▁يەنە": 8590,
      "してい": 8591,
      "▁тұ": 8592,
      "eler": 8593,
      "s,": 8594,
      "▁маш": 8595,
      "تىنى": 8596,
      "▁چۈش": 8597,
      "▁2022": 8598,
      "▁чоң": 8599,
      "▁üç": 8600,
      "jiang": 8601,
      "▁g'": 8602,
      "▁AC": 8603,
      "チャンピオン": 8604,
      "▁байл": 8605,
      "▁воз": 8606,
      "ary": 8607,
      "▁ist": 8608,
      "▁بولۇپ": 8609,
      "мал": 8610,
      "ада": 8611,
      "ラー": 8612,
      "▁ئاشكار": 8613,
      "еттеш": 8614,
      "▁قىز": 8615,
      "▁ул": 8616,
      "▁соң": 8617,
      "▁фотографии": 8618,
      "ась": 8619,
      "▁2021": 8620,
      "ınız": 8621,
      "ремьер-": 8622,
      "▁açık": 8623,
      "larda": 8624,
      "▁дагы": 8625,
      "▁командас": 8626,
      "▁акт": 8627,
      "▁كىرگۈز": 8628,
      "▁announced": 8629,
      "\tU": 8630,
      "▁fiyat": 8631,
      "▁Мен": 8632,
      "▁2023": 8633,
      "ыны": 8634,
      "▁yok": 8635,
      "▁которые": 8636,
      "\tNBA": 8637,
      "▁алм": 8638,
      "▁تارى": 8639,
      "ure": 8640,
      "▁يۇقىرى": 8641,
      "ном": 8642,
      "▁кош": 8643,
      "▁түш": 8644,
      "ادى": 8645,
      "▁players": 8646,
      "▁вн": 8647,
      "▁تۇن": 8648,
      "▁бо": 8649,
      "ildi": 8650,
      "larak": 8651,
      "▁больш": 8652,
      "ames": 8653,
      "fe": 8654,
      "»نىڭ": 8655,
      "▁жөн": 8656,
      "аты": 8657,
      "leş": 8658,
      "▁тап": 8659,
      "eym": 8660,
      "▁крас": 8661,
      "か？": 8662,
      "▁قىلىش": 8663,
      "tır": 8664,
      "的な": 8665,
      "adan": 8666,
      "には": 8667,
      "инде": 8668,
      "сер": 8669,
      "ايى": 8670,
      "сок": 8671,
      "▁يار": 8672,
      "14": 8673,
      "дей": 8674,
      "▁бу": 8675,
      "▁уш": 8676,
      "EFA": 8677,
      "ign": 8678,
      "▁لوڭ": 8679,
      "ドリード": 8680,
      "ley": 8681,
      "оду": 8682,
      "ens": 8683,
      "emiz": 8684,
      "▁كىرى": 8685,
      "▁its": 8686,
      "еді": 8687,
      "▁акыркы": 8688,
      "▁تۇنجى": 8689,
      "▁24": 8690,
      "▁үздік": 8691,
      "▁до": 8692,
      "▁yay": 8693,
      "▁تار": 8694,
      "Если": 8695,
      "ivo": 8696,
      "abilir": 8697,
      "ысы": 8698,
      "став": 8699,
      "ayern": 8700,
      "シャ": 8701,
      "新しい": 8702,
      "изн": 8703,
      "ите": 8704,
      "▁беттеш": 8705,
      "▁жакшы": 8706,
      "▁ئەم": 8707,
      "aga": 8708,
      "ンド": 8709,
      "▁duy": 8710,
      "стан": 8711,
      "▁سو": 8712,
      "▁лучш": 8713,
      ")\r\n": 8714,
      "▁sezon": 8715,
      "moqda": 8716,
      "ستى": 8717,
      "▁200": 8718,
      "▁наз": 8719,
      "▁rec": 8720,
      "▁жер": 8721,
      "емі": 8722,
      "▁болады": 8723,
      "人の": 8724,
      "ため": 8725,
      "▁миллиард": 8726,
      "▁olarak": 8727,
      "▁біл": 8728,
      "арых": 8729,
      "▁چېمپىيونلۇق": 8730,
      "▁قايسى": 8731,
      "100": 8732,
      "سە": 8733,
      "çek": 8734,
      "درىد": 8735,
      "дүү": 8736,
      "ская": 8737,
      "▁турган": 8738,
      "ork": 8739,
      "ュー": 8740,
      "\tCh": 8741,
      "▁مادرىد": 8742,
      "тү": 8743,
      "▁مو": 8744,
      "▁Galaxy": 8745,
      "s\t": 8746,
      "▁يو": 8747,
      "larini": 8748,
      "قە": 8749,
      "асына": 8750,
      "▁Bu": 8751,
      "ух": 8752,
      "ную": 8753,
      "▁женщ": 8754,
      "?\tН": 8755,
      "'un": 8756,
      "▁sonra": 8757,
      "Apple": 8758,
      "rk": 8759,
      "вроп": 8760,
      "ао": 8761,
      "▁ол": 8762,
      "▁per": 8763,
      "яд": 8764,
      "▁ск": 8765,
      "▁22": 8766,
      "еств": 8767,
      "aj": 8768,
      "塞罗": 8769,
      "▁لوڭقىسى": 8770,
      "马德里": 8771,
      "تىپ": 8772,
      "?\tЭмне": 8773,
      "ришти": 8774,
      "▁ем": 8775,
      "セロナ": 8776,
      "▁эле": 8777,
      "バルセロナ": 8778,
      "▁актер": 8779,
      "усу": 8780,
      "риштиану": 8781,
      "▁season": 8782,
      "баппе": 8783,
      "көн": 8784,
      "▁ئۇچ": 8785,
      "IDS": 8786,
      "▁should": 8787,
      "巴塞罗": 8788,
      "巴塞罗那": 8789,
      "べき": 8790,
      "?\tА": 8791,
      "ual": 8792,
      "・マドリード": 8793,
      "akk": 8794,
      "alari": 8795,
      "▁their": 8796,
      "▁yana": 8797,
      "60": 8798,
      "シーズン": 8799,
      "ros": 8800,
      "PPO": 8801,
      "▁ас": 8802,
      "正式": 8803,
      "▁بارسېل": 8804,
      "▁fotoğrafları": 8805,
      "сон": 8806,
      "▁kur": 8807,
      "▁çek": 8808,
      "▁know": 8809,
      "▁iş": 8810,
      "▁model": 8811,
      "асыз": 8812,
      "▁تال": 8813,
      "▁rol": 8814,
      "▁ئېرىش": 8815,
      "مكىن": 8816,
      "▁yıldız": 8817,
      "▁mon": 8818,
      "▁зар": 8819,
      "azar": 8820,
      "如何": 8821,
      ".\tU": 8822,
      "▁bea": 8823,
      "уляр": 8824,
      ".\tЖ": 8825,
      "▁مۇمكىن": 8826,
      "?\tNima": 8827,
      "▁клуб": 8828,
      "▁sayı": 8829,
      "▁истор": 8830,
      "şı": 8831,
      "▁доллар": 8832,
      "rt": 8833,
      "ibi": 8834,
      "▁Премьер-": 8835,
      "?\t你": 8836,
      "レアル": 8837,
      "▁say": 8838,
      "aland": 8839,
      "леду": 8840,
      "lacak": 8841,
      "▁Paris": 8842,
      "▁топ": 8843,
      "дыр": 8844,
      "ult": 8845,
      "▁سۈ": 8846,
      "тады.\t": 8847,
      "дет": 8848,
      "ou": 8849,
      "バー": 8850,
      "▁kim": 8851,
      "ternet": 8852,
      "!\tB": 8853,
      "▁trans": 8854,
      "aml": 8855,
      "\tЛ": 8856,
      "▁Кар": 8857,
      "ech": 8858,
      "▁ياۋروپا": 8859,
      "▁бой": 8860,
      "▁بارسېلونا": 8861,
      "▁бай": 8862,
      "▁bo'ldi.\t": 8863,
      "aceX": 8864,
      "же": 8865,
      "どう": 8866,
      "о,": 8867,
      "▁ortaya": 8868,
      "▁يۈر": 8869,
      "▁прод": 8870,
      "o'y": 8871,
      "▁ئامېرى": 8872,
      "ebilir": 8873,
      "▁country": 8874,
      "▁world": 8875,
      "されました": 8876,
      "дел": 8877,
      "17": 8878,
      "▁человек": 8879,
      "cı": 8880,
      "のですか？\tПочему": 8881,
      "кү": 8882,
      "ть": 8883,
      "▁point": 8884,
      "▁Br": 8885,
      "ishga": 8886,
      "?\tH": 8887,
      "осм": 8888,
      "▁باھاسى": 8889,
      "▁var": 8890,
      "已经": 8891,
      "▁электр": 8892,
      "▁верс": 8893,
      "تىش": 8894,
      "رېن": 8895,
      "▁rasm": 8896,
      "amlakat": 8897,
      "▁oldu.\r\n": 8898,
      "▁years": 8899,
      "ился": 8900,
      "▁өмір": 8901,
      "di!": 8902,
      "サン": 8903,
      "▁نومۇر": 8904,
      "▁مىليون": 8905,
      "有名": 8906,
      "▁27": 8907,
      "قار": 8908,
      "\tЧ": 8909,
      "ытай": 8910,
      "▁مې": 8911,
      "?\tЖ": 8912,
      "▁ھەم": 8913,
      "امدۇ؟\t": 8914,
      "asini": 8915,
      "пр": 8916,
      "مەي": 8917,
      "тип": 8918,
      "Is": 8919,
      "▁mark": 8920,
      "▁ئىقتى": 8921,
      "▁kadın": 8922,
      "ı\r\n": 8923,
      "enc": 8924,
      "▁Сити": 8925,
      "еси": 8926,
      "нің": 8927,
      "ジャ": 8928,
      "▁қор": 8929,
      "لىدى\t": 8930,
      "▁рет": 8931,
      "\tJ": 8932,
      "үнө": 8933,
      "▁сег": 8934,
      "▁қос": 8935,
      "▁get": 8936,
      "br": 8937,
      "ياۋ": 8938,
      "23": 8939,
      "▁lik": 8940,
      "価格": 8941,
      "▁сай": 8942,
      "▁чет": 8943,
      "уул": 8944,
      "▁канч": 8945,
      "。\tア": 8946,
      "▁объ": 8947,
      "چېس": 8948,
      "▁zar": 8949,
      "▁перв": 8950,
      "دۇ؟\tWhy": 8951,
      "ted": 8952,
      "نىيە": 8953,
      "аның": 8954,
      "▁Mar": 8955,
      "ээ": 8956,
      "دى!\t": 8957,
      "▁dr": 8958,
      "قەت": 8959,
      "るの": 8960,
      "▁about": 8961,
      "▁сул": 8962,
      "изм": 8963,
      "▁23": 8964,
      "Дж": 8965,
      "▁это": 8966,
      "erman": 8967,
      "agen": 8968,
      "ekler": 8969,
      "？\tなぜ": 8970,
      "ңүз": 8971,
      "▁player": 8972,
      "▁дост": 8973,
      "▁um": 8974,
      "bappe": 8975,
      "▁уб": 8976,
      "есть": 8977,
      "ись": 8978,
      "中国": 8979,
      "ает": 8980,
      "得点": 8981,
      "▁tash": 8982,
      "арселон": 8983,
      "lub": 8984,
      "▁نې": 8985,
      "ازار": 8986,
      "▁qo'l": 8987,
      "ao": 8988,
      "uda": 8989,
      "▁list": 8990,
      "▁Xiaomi": 8991,
      "landı.\r\n": 8992,
      "يار": 8993,
      "自動": 8994,
      "reat": 8995,
      "фер": 8996,
      "ность": 8997,
      "for": 8998,
      "▁я": 8999,
      "ından": 9000,
      "SA": 9001,
      "ерп": 9002,
      "▁соңғы": 9003,
      "ham": 9004,
      "ті": 9005,
      "▁گۈز": 9006,
      "▁بەش": 9007,
      "мерик": 9008,
      "مەك": 9009,
      "▁gün": 9010,
      "ード": 9011,
      "▁foy": 9012,
      "گان": 9013,
      "▁следу": 9014,
      "▁دو": 9015,
      "qat": 9016,
      "ru": 9017,
      "生活": 9018,
      "لىپ": 9019,
      "چىسى": 9020,
      "皇家": 9021,
      "olks": 9022,
      "-жыл": 9023,
      "▁ئۆز": 9024,
      "レアル・マドリード": 9025,
      "wagen": 9026,
      "▁kasal": 9027,
      "olkswagen": 9028,
      "▁полу": 9029,
      "▁айл": 9030,
      "ci": 9031,
      "пен": 9032,
      "تۇ": 9033,
      "▁күй": 9034,
      "▁chempion": 9035,
      "evro": 9036,
      "▁тө": 9037,
      "▁güzel": 9038,
      "▁ئۆزى": 9039,
      "лю": 9040,
      "ңыз": 9041,
      "arm": 9042,
      "▁сыйл": 9043,
      "れば": 9044,
      "Что": 9045,
      "өлі": 9046,
      "▁توخ": 9047,
      "larga": 9048,
      "▁aylan": 9049,
      "gain": 9050,
      "チェスター": 9051,
      "\tГ": 9052,
      "▁жел": 9053,
      "arselona": 9054,
      "▁байланы": 9055,
      "マンチェスター": 9056,
      "ある": 9057,
      "▁вып": 9058,
      "▁катыш": 9059,
      "eç": 9060,
      "▁بالى": 9061,
      "▁сә": 9062,
      "▁мест": 9063,
      "▁алды": 9064,
      "▁بولدى\t": 9065,
      "per": 9066,
      "үкт": 9067,
      "لىي": 9068,
      "▁эрк": 9069,
      "は何": 9070,
      "明星": 9071,
      "▁нач": 9072,
      "▁гл": 9073,
      "これらの": 9074,
      "пер": 9075,
      "рен": 9076,
      "が公開": 9077,
      "日の": 9078,
      "нглия": 9079,
      "70": 9080,
      "и,": 9081,
      "▁final": 9082,
      "аза": 9083,
      "سىز؟\t": 9084,
      "iver": 9085,
      "▁يى": 9086,
      "▁int": 9087,
      "ены": 9088,
      "▁خانلىق": 9089,
      "гент": 9090,
      "▁тарых": 9091,
      "▁نام": 9092,
      "▁0:1": 9093,
      "▁ئىككى": 9094,
      "ится": 9095,
      "もし": 9096,
      "▁баасы": 9097,
      "可以": 9098,
      "▁erkak": 9099,
      "ola": 9100,
      "\tЕ": 9101,
      "▁рейт": 9102,
      "▁kam": 9103,
      "▁tarih": 9104,
      "ФА": 9105,
      "ライ": 9106,
      "▁колдон": 9107,
      "▁тол": 9108,
      "いて": 9109,
      "obile": 9110,
      "сіз": 9111,
      "▁again": 9112,
      "▁при": 9113,
      "▁зап": 9114,
      "өлүк": 9115,
      "▁ко": 9116,
      "обы": 9117,
      "皇家马德里": 9118,
      "▁нег": 9119,
      "olo": 9120,
      "бат": 9121,
      "?\t为什么": 9122,
      "▁suratlari": 9123,
      "进球": 9124,
      "▁алдын": 9125,
      "min": 9126,
      "▁ел": 9127,
      "ile": 9128,
      "risti": 9129,
      "▁ич": 9130,
      "▁مانچېس": 9131,
      "dir?\r\n": 9132,
      "ように": 9133,
      "▁тарих": 9134,
      "لەم": 9135,
      "сен": 9136,
      "игр": 9137,
      "ffic": 9138,
      "ond": 9139,
      "22": 9140,
      "iti": 9141,
      "ата": 9142,
      "▁әлем": 9143,
      "ура": 9144,
      "▁dev": 9145,
      "елси": 9146,
      "rans": 9147,
      "ПИ": 9148,
      "▁gen": 9149,
      "ret": 9150,
      "аша": 9151,
      "▁oyn": 9152,
      "wo": 9153,
      "ーロ": 9154,
      "тағы": 9155,
      "▁phone": 9156,
      "▁kez": 9157,
      "nun": 9158,
      "pr": 9159,
      "hen": 9160,
      "▁بېرى": 9161,
      "▁Гу": 9162,
      "▁City": 9163,
      "▁three": 9164,
      "▁after": 9165,
      "sek": 9166,
      "▁эмес": 9167,
      "し、": 9168,
      "tik": 9169,
      "ampions": 9170,
      "▁Қ": 9171,
      "▁Kup": 9172,
      "\tTh": 9173,
      "ПИД": 9174,
      "ов,": 9175,
      "▁child": 9176,
      "▁оюнчулар": 9177,
      "▁bas": 9178,
      "▁movi": 9179,
      "▁نۇس": 9180,
      "▁ئايلان": 9181,
      "▁qo'sh": 9182,
      "uc": 9183,
      "这些": 9184,
      "ске": 9185,
      "ию": 9186,
      "最高": 9187,
      "美国": 9188,
      "ix": 9189,
      "ony": 9190,
      "▁گۈزەل": 9191,
      "▁туралы": 9192,
      "sen": 9193,
      "yan": 9194,
      "вер": 9195,
      "ледн": 9196,
      "rup": 9197,
      "▁Интер": 9198,
      "lkemiz": 9199,
      "oda": 9200,
      "Вы": 9201,
      "カップ": 9202,
      "公布": 9203,
      "▁mak": 9204,
      "CBA": 9205,
      "▁buy": 9206,
      "нет": 9207,
      "▁كار": 9208,
      "بول": 9209,
      "▁ұпай": 9210,
      "▁ойыншылар": 9211,
      "▁piyasaya": 9212,
      "▁упай": 9213,
      "▁does": 9214,
      "▁tu": 9215,
      "▁me": 9216,
      "▁want": 9217,
      "▁іш": 9218,
      "▁прот": 9219,
      "▁көлі": 9220,
      "▁%": 9221,
      "▁Cup": 9222,
      "▁yuq": 9223,
      "▁kirit": 9224,
      "издин": 9225,
      "ھە": 9226,
      "ランド": 9227,
      "ズリーグ": 9228,
      "alan": 9229,
      "▁таны": 9230,
      "▁پۇل": 9231,
      "▁dis": 9232,
      "энь": 9233,
      "деги": 9234,
      "▁yer": 9235,
      "▁reveal": 9236,
      "▁qanch": 9237,
      "▁St": 9238,
      "omon": 9239,
      "▁داڭ": 9240,
      "▁план": 9241,
      "▁مانچېستېر": 9242,
      "уды": 9243,
      "ۋان": 9244,
      "ings": 9245,
      "▁توپچىلار": 9246,
      "▁расмий": 9247,
      "▁бе?\t": 9248,
      "▁yen": 9249,
      "になり": 9250,
      "▁sotib": 9251,
      "冠军": 9252,
      "的人": 9253,
      "▁фотос": 9254,
      "電話": 9255,
      "ольз": 9256,
      "自動車": 9257,
      "ісі": 9258,
      "ment": 9259,
      "▁ойн": 9260,
      "▁yayın": 9261,
      "▁26": 9262,
      "▁زى": 9263,
      "球队": 9264,
      "▁жағ": 9265,
      "tiv": 9266,
      "▁بازار": 9267,
      "abab": 9268,
      "▁نۇسخى": 9269,
      "ily": 9270,
      "▁like": 9271,
      "▁مىڭ": 9272,
      "еймс": 9273,
      "ыкка": 9274,
      "ampiyonlar": 9275,
      "ماقچى": 9276,
      "▁kay": 9277,
      "▁hist": 9278,
      "▁became": 9279,
      "injiang": 9280,
      "▁стал": 9281,
      "▁Ronald": 9282,
      "-й": 9283,
      "▁вер": 9284,
      "usu": 9285,
      "▁беш": 9286,
      "Ин": 9287,
      "Әлем": 9288,
      "▁sır": 9289,
      "ektr": 9290,
      "▁исп": 9291,
      "bir": 9292,
      "еті": 9293,
      "を見": 9294,
      "andan": 9295,
      "ekt": 9296,
      "▁000": 9297,
      "لۇ": 9298,
      "▁cons": 9299,
      "▁more": 9300,
      "urn": 9301,
      "▁Kupası": 9302,
      "maz": 9303,
      "25": 9304,
      "oot": 9305,
      "kat": 9306,
      "дардын": 9307,
      "Егер": 9308,
      "ۇلى": 9309,
      "▁foyd": 9310,
      "amlakatimiz": 9311,
      "▁str": 9312,
      "チャンピオンズリーグ": 9313,
      "▁Amer": 9314,
      "кет": 9315,
      "\tФ": 9316,
      "لەت": 9317,
      "ません。\t": 9318,
      "が国": 9319,
      "▁сл": 9320,
      "ығы": 9321,
      "alam": 9322,
      "▁но": 9323,
      "▁люб": 9324,
      "ней": 9325,
      "ыв": 9326,
      "گەر": 9327,
      "▁go'": 9328,
      "ейк": 9329,
      "AC": 9330,
      "獲得": 9331,
      "▁high": 9332,
      "▁сіз": 9333,
      "▁oladi": 9334,
      "▁кантип": 9335,
      "▁inc": 9336,
      "empionlar": 9337,
      "▁ئۆت": 9338,
      "▁во": 9339,
      "ец": 9340,
      "چىلىك": 9341,
      ".\tТ": 9342,
      "▁году": 9343,
      "より": 9344,
      "▁boy": 9345,
      "ですか？\tКак": 9346,
      "өй": 9347,
      ".\tС": 9348,
      "▁ресми": 9349,
      "імді": 9350,
      "ермания": 9351,
      "дик": 9352,
      "マンチェスター・": 9353,
      "ink": 9354,
      "▁och": 9355,
      "эм": 9356,
      "▁если": 9357,
      "▁besh": 9358,
      "▁интер": 9359,
      "вар": 9360,
      "تۇن": 9361,
      "ool": 9362,
      "▁стан": 9363,
      "kaz": 9364,
      "▁üst": 9365,
      "▁etti.\r\n": 9366,
      "ера": 9367,
      "▁doğ": 9368,
      "している": 9369,
      "▁مۇسابىقە": 9370,
      "ristiano": 9371,
      "unyo": 9372,
      "▁врем": 9373,
      "ular": 9374,
      "na": 9375,
      "onda": 9376,
      "ale": 9377,
      "▁Ювентус": 9378,
      "▁аны": 9379,
      "ウェ": 9380,
      "атель": 9381,
      "▁milyon": 9382,
      "▁жарияланды.\t": 9383,
      "▁es": 9384,
      "ける": 9385,
      "لەپ": 9386,
      "キャ": 9387,
      "▁келиш": 9388,
      "орм": 9389,
      "▁كەتتى": 9390,
      "كىتى": 9391,
      "での": 9392,
      "ball": 9393,
      "?\tE": 9394,
      "▁keyin": 9395,
      "ASA": 9396,
      "дөгү": 9397,
      "▁ئەرلەر": 9398,
      "زەر": 9399,
      "▁hol": 9400,
      "▁katıl": 9401,
      "gun": 9402,
      "第一": 9403,
      "ner": 9404,
      "▁әд": 9405,
      "▁ئورگان": 9406,
      "ەتتە": 9407,
      "▁эки": 9408,
      "ски": 9409,
      "ことを": 9410,
      "indeki": 9411,
      "-тур": 9412,
      "руг": 9413,
      "▁olish": 9414,
      "өө": 9415,
      ":9": 9416,
      "▁كېسى": 9417,
      "24": 9418,
      "o'r": 9419,
      "odi": 9420,
      "▁тем": 9421,
      "▁жұм": 9422,
      "記録": 9423,
      "ери": 9424,
      "▁мужч": 9425,
      "qi": 9426,
      "▁gö": 9427,
      "▁launch": 9428,
      "▁beş": 9429,
      "ust": 9430,
      "у:": 9431,
      "زىم": 9432,
      "ەڭ": 9433,
      "子供": 9434,
      "▁so'ng": 9435,
      "▁با": 9436,
      "▁1:2": 9437,
      "ими": 9438,
      "▁рын": 9439,
      "ۋېلى": 9440,
      "▁пост": 9441,
      "unuz?\r\n": 9442,
      "way": 9443,
      "▁зав": 9444,
      "▁Ul": 9445,
      "its": 9446,
      "▁شىن": 9447,
      "pa": 9448,
      "ақыт": 9449,
      "▁ئاشكارىلان": 9450,
      "ехн": 9451,
      "▁НБА": 9452,
      "方法": 9453,
      "ating": 9454,
      "-yil": 9455,
      "абы?\t": 9456,
      "دى،": 9457,
      "талия": 9458,
      "で最も": 9459,
      "айды": 9460,
      "▁екі": 9461,
      "▁official": 9462,
      "▁авток": 9463,
      "langan": 9464,
      "ocuk": 9465,
      "▁нашей": 9466,
      "ۇشى": 9467,
      "▁пен": 9468,
      "тагы": 9469,
      "▁эконом": 9470,
      "ship": 9471,
      "▁داڭلىق": 9472,
      "ارا": 9473,
      "iden": 9474,
      "ууну": 9475,
      "arli": 9476,
      "убли": 9477,
      "▁sar": 9478,
      "ster": 9479,
      "▁سېلى": 9480,
      "▁(5": 9481,
      "magan": 9482,
      "іктен": 9483,
      "▁ئەي": 9484,
      "▁2020": 9485,
      ".\tF": 9486,
      "yun": 9487,
      "携帯": 9488,
      "▁аур": 9489,
      "ますか？\tКак": 9490,
      "された": 9491,
      "▁Бавария": 9492,
      "▁Inter": 9493,
      "▁women": 9494,
      "?\tY": 9495,
      "ove": 9496,
      "over": 9497,
      "我国": 9498,
      "▁but": 9499,
      "енз": 9500,
      "▁кино": 9501,
      "赛季": 9502,
      "▁поб": 9503,
      "▁жоғары": 9504,
      "▁qilindi.\t": 9505,
      "▁көң": 9506,
      "▁نى": 9507,
      "▁дең": 9508,
      "iverp": 9509,
      "▁ئىس": 9510,
      "ができ": 9511,
      "▁қаб": 9512,
      "▁28": 9513,
      "▁سا": 9514,
      "▁kız": 9515,
      "андов": 9516,
      "▁when": 9517,
      "NBA": 9518,
      "ەلى": 9519,
      "スは": 9520,
      "▁звез": 9521,
      "forman": 9522,
      "مىي": 9523,
      "ىرى": 9524,
      "ЕФА": 9525,
      "▁Yun": 9526,
      "▁tez": 9527,
      "▁Синь": 9528,
      "иверп": 9529,
      "ting": 9530,
      "▁takımı": 9531,
      "▁уп": 9532,
      "▁бі": 9533,
      "кіз": 9534,
      "арды": 9535,
      "amous": 9536,
      "▁belir": 9537,
      "ンが": 9538,
      "▁од": 9539,
      "!\tA": 9540,
      "ema": 9541,
      "▁دۆلىتى": 9542,
      "▁tam": 9543,
      "▁0:2": 9544,
      "idagi": 9545,
      "ört": 9546,
      "لەن": 9547,
      "аться": 9548,
      "edmi": 9549,
      "アー": 9550,
      "▁history": 9551,
      "▁бағасы": 9552,
      "рас": 9553,
      "?\tM": 9554,
      "▁против": 9555,
      "aus": 9556,
      "иц": 9557,
      "万元": 9558,
      "▁kiş": 9559,
      "▁көрсөт": 9560,
      "able": 9561,
      "▁истории": 9562,
      "▁1:1": 9563,
      "ats": 9564,
      "ick": 9565,
      "▁этом": 9566,
      "▁sürü": 9567,
      "ıt": 9568,
      "еліктен": 9569,
      "دارى": 9570,
      "ияс": 9571,
      "▁to'p": 9572,
      "▁болс": 9573,
      "▁شىر": 9574,
      "YD": 9575,
      "евандов": 9576,
      "健康": 9577,
      "ындай": 9578,
      "ib,": 9579,
      "▁year": 9580,
      "larını": 9581,
      "▁Av": 9582,
      "Бул": 9583,
      "▁star": 9584,
      "没有": 9585,
      "▁келди": 9586,
      "ルト": 9587,
      "食べ": 9588,
      "▁قىلغان": 9589,
      "any": 9590,
      "رىك": 9591,
      "▁تۆت": 9592,
      "؟\tHow": 9593,
      "hou": 9594,
      "▁mı?\r\n": 9595,
      "▁мир": 9596,
      "daki": 9597,
      "دۇر": 9598,
      "vel": 9599,
      "▁geç": 9600,
      "▁şey": 9601,
      "▁يول": 9602,
      "▁жылы": 9603,
      "eg": 9604,
      "ности": 9605,
      "今年": 9606,
      "айт:": 9607,
      "▁duyur": 9608,
      "оре": 9609,
      "▁шық": 9610,
      ":4": 9611,
      "▁olur": 9612,
      "-с": 9613,
      "▁out": 9614,
      "▁Барселон": 9615,
      "дукт": 9616,
      "▁төмен": 9617,
      "▁دائى": 9618,
      "тары": 9619,
      "ahon": 9620,
      "уге": 9621,
      "日本": 9622,
      "?\tС": 9623,
      "▁рас": 9624,
      "utiful": 9625,
      "▁قول": 9626,
      "apon": 9627,
      "▁gerçek": 9628,
      "indi": 9629,
      "▁іст": 9630,
      "▁сатыл": 9631,
      "ormal": 9632,
      "▁kullan": 9633,
      "arı": 9634,
      "▁لى": 9635,
      "▁жаз": 9636,
      "لارنى": 9637,
      "▁Tesla": 9638,
      "携帯電話": 9639,
      "mat": 9640,
      "▁после": 9641,
      "▁алғаш": 9642,
      "се": 9643,
      "▁don": 9644,
      "▁iki": 9645,
      "adı": 9646,
      "FC": 9647,
      "غل": 9648,
      "▁сост": 9649,
      "түү": 9650,
      "でしょうか？\t": 9651,
      "Жаң": 9652,
      "▁ئۈ": 9653,
      "деш": 9654,
      "-s": 9655,
      "atest": 9656,
      "▁чемпионов": 9657,
      "▁katta": 9658,
      "▁прев": 9659,
      "▁рез": 9660,
      "▁دۆلىتىمىز": 9661,
      "о:": 9662,
      "▁won": 9663,
      "ef": 9664,
      "ы,": 9665,
      "▁did": 9666,
      "▁kazan": 9667,
      "dro": 9668,
      "öy": 9669,
      "▁его": 9670,
      "発売": 9671,
      "▁тұр": 9672,
      "chisi": 9673,
      "дүн": 9674,
      "age": 9675,
      "▁без": 9676,
      "▁قىزى": 9677,
      "eymar": 9678,
      "kan": 9679,
      "▁up": 9680,
      "'a": 9681,
      "joy": 9682,
      "▁мира": 9683,
      "oning": 9684,
      "リカ": 9685,
      "labilir": 9686,
      "aki": 9687,
      "раж": 9688,
      "▁karşı": 9689,
      "گۈ": 9690,
      "的球员": 9691,
      "جاڭ": 9692,
      "巴黎": 9693,
      "▁our": 9694,
      "ıyor": 9695,
      "ope": 9696,
      "نا": 9697,
      "▁mag": 9698,
      "▁پارى": 9699,
      "▁Мар": 9700,
      "▁سال": 9701,
      "▁Хан": 9702,
      "ade": 9703,
      "▁öz": 9704,
      "oft": 9705,
      "▁yuqori": 9706,
      "公式": 9707,
      "digan": 9708,
      "ыктуу": 9709,
      "可能性": 9710,
      "▁получ": 9711,
      "сқ": 9712,
      "раб": 9713,
      "▁тек": 9714,
      "▁olan": 9715,
      "ül": 9716,
      "非常": 9717,
      "▁sin": 9718,
      "өмөн": 9719,
      "▁نېمى": 9720,
      "▁им": 9721,
      "▁سۇ": 9722,
      "▁произ": 9723,
      "Can": 9724,
      "国家": 9725,
      "?\tT": 9726,
      "utom": 9727,
      "▁تام": 9728,
      "▁bo'ladi": 9729,
      "▁финал": 9730,
      "▁nam": 9731,
      "onom": 9732,
      "abb": 9733,
      "▁коман": 9734,
      "▁كۈچ": 9735,
      "інен": 9736,
      "▁juda": 9737,
      "にお": 9738,
      "▁сбор": 9739,
      "▁ئىن": 9740,
      "убликов": 9741,
      "▁بەر": 9742,
      "ing.\t": 9743,
      "emier": 9744,
      "ack": 9745,
      "▁ок": 9746,
      "▁sm": 9747,
      "ko": 9748,
      "ligini": 9749,
      "バイ": 9750,
      "80": 9751,
      "مەن": 9752,
      "中的": 9753,
      "asining": 9754,
      "▁ئۇز": 9755,
      "▁دائىم": 9756,
      "لىقىنى": 9757,
      "▁–": 9758,
      "lar:": 9759,
      "ナイ": 9760,
      "▁boz": 9761,
      "▁kuch": 9762,
      "▁карьер": 9763,
      "著名": 9764,
      "есь": 9765,
      "үгүн": 9766,
      "▁мұ": 9767,
      "▁him": 9768,
      "Эгер": 9769,
      "ония": 9770,
      "كۈنى": 9771,
      "▁پارىژ": 9772,
      "دى!": 9773,
      "o'nun": 9774,
      ".\tV": 9775,
      "▁pre": 9776,
      "▁فىلى": 9777,
      ",000": 9778,
      "qa": 9779,
      "иялык": 9780,
      "ранция": 9781,
      "るる": 9782,
      "айн": 9783,
      "ушу": 9784,
      "maya": 9785,
      "パリ": 9786,
      "▁500": 9787,
      "ып,": 9788,
      "▁چىقى": 9789,
      "unday": 9790,
      "\tİ": 9791,
      "▁мә": 9792,
      "сү": 9793,
      "огут": 9794,
      "▁актри": 9795,
      "acak.\r\n": 9796,
      "ーの": 9797,
      "ехнолог": 9798,
      "di.\tМ": 9799,
      "tı\r\n": 9800,
      "▁ikki": 9801,
      "-يىلى": 9802,
      "aaland": 9803,
      "▁تورى": 9804,
      "欧洲": 9805,
      "ugh": 9806,
      "▁бірінші": 9807,
      "uar": 9808,
      "▁time": 9809,
      "rag": 9810,
      "لەي": 9811,
      "▁bak": 9812,
      "?\tO": 9813,
      "ەسىل": 9814,
      "▁oshkor": 9815,
      "▁деген": 9816,
      "ana": 9817,
      "▁deb": 9818,
      "ward": 9819,
      "▁sav": 9820,
      "▁پاي": 9821,
      "では": 9822,
      "▁performan": 9823,
      "xt": 9824,
      "▁уз": 9825,
      "\tҚ": 9826,
      "ети": 9827,
      "roq": 9828,
      "olog": 9829,
      "▁appear": 9830,
      "індегі": 9831,
      "▁شىنجاڭ": 9832,
      "If": 9833,
      "▁ваш": 9834,
      "▁Khan": 9835,
      "شىنى": 9836,
      "2021": 9837,
      "▁келіс": 9838,
      "азар": 9839,
      "▁үлкен": 9840,
      "droid": 9841,
      "огу": 9842,
      "ыть": 9843,
      "онун": 9844,
      "▁elektr": 9845,
      "▁ев": 9846,
      "لىيە": 9847,
      "асы:": 9848,
      "▁WeChat": 9849,
      "▁тел": 9850,
      "▁تاش": 9851,
      "ырт": 9852,
      "▁بېل": 9853,
      "unun": 9854,
      "▁чей": 9855,
      "▁(7": 9856,
      "▁жағдай": 9857,
      "لاپ": 9858,
      "▁Th": 9859,
      "else": 9860,
      "▁تارىخى": 9861,
      "▁сиз": 9862,
      "▁mashhur": 9863,
      "ынды": 9864,
      "▁سانت": 9865,
      "янь": 9866,
      "▁to'rt": 9867,
      "▁internet": 9868,
      "▁алуу": 9869,
      "еть": 9870,
      "▁five": 9871,
      "▁дел": 9872,
      "▁60": 9873,
      "▁поп": 9874,
      "▁seç": 9875,
      "есіз": 9876,
      "ского": 9877,
      "алам": 9878,
      "abr": 9879,
      "ілер": 9880,
      "▁Синьцзян": 9881,
      "ması": 9882,
      "▁болды": 9883,
      "ldü": 9884,
      "иверпуль": 9885,
      "كاپ": 9886,
      "ー・": 9887,
      "▁تەن": 9888,
      "リス": 9889,
      "▁ئېن": 9890,
      "incan": 9891,
      "▁br": 9892,
      "asında": 9893,
      "▁төмөн": 9894,
      "нат": 9895,
      "▁прин": 9896,
      "кі": 9897,
      "▁Ö": 9898,
      "▁(6": 9899,
      "▁ھەر": 9900,
      "ۋەن": 9901,
      "▁ап": 9902,
      "other": 9903,
      "rash": 9904,
      "ilr": 9905,
      "▁sit": 9906,
      "цион": 9907,
      "▁oyunc": 9908,
      "▁2-": 9909,
      "ください。\t": 9910,
      "▁Ligasi": 9911,
      "▁co": 9912,
      "дір": 9913,
      "ірі": 9914,
      "\tУ": 9915,
      "за": 9916,
      "ۋەر": 9917,
      "ару": 9918,
      "ейн": 9919,
      "▁سەپ": 9920,
      "▁жарыяланды.\t": 9921,
      "arak": 9922,
      "▁چې": 9923,
      "▁تور": 9924,
      "▁май": 9925,
      "▁مۇسابىقىسى:": 9926,
      "▁ئەس": 9927,
      "▁çıktı.\r\n": 9928,
      "ken": 9929,
      "▁один": 9930,
      "reas": 9931,
      "▁соқ": 9932,
      "moqchi": 9933,
      "port": 9934,
      "erson": 9935,
      "▁were": 9936,
      "2022": 9937,
      "▁оң": 9938,
      "▁AIDS": 9939,
      "▁كىم": 9940,
      "が発表": 9941,
      "▁бур": 9942,
      "▁35": 9943,
      "ۋا": 9944,
      "▁yol": 9945,
      "يۇن": 9946,
      "онс": 9947,
      "ij": 9948,
      "дж": 9949,
      "سان": 9950,
      "▁Bayern": 9951,
      "ence": 9952,
      "ыңжаң": 9953,
      "уда": 9954,
      "なか": 9955,
      "▁dar": 9956,
      "لانما": 9957,
      "▁косм": 9958,
      "inden": 9959,
      "үйнөлүк": 9960,
      "▁يانفونى": 9961,
      "▁ур": 9962,
      "▁стран": 9963,
      "出现": 9964,
      "ство": 9965,
      "angiz": 9966,
      "▁ئەھ": 9967,
      "赛：": 9968,
      "▁0:3": 9969,
      "Роналду": 9970,
      "упер": 9971,
      "▁two": 9972,
      "esini": 9973,
      "，你": 9974,
      "▁win": 9975,
      "▁sabab": 9976,
      "оланд": 9977,
      "999": 9978,
      "-ئاينىڭ": 9979,
      "▁объяв": 9980,
      "бай": 9981,
      "атар": 9982,
      "▁тұра": 9983,
      "ider": 9984,
      "▁жин": 9985,
      "ских": 9986,
      "▁2024": 9987,
      "ود": 9988,
      "▁жетиш": 9989,
      "ۈگ": 9990,
      "▁fa": 9991,
      "▁تۆۋەن": 9992,
      "мож": 9993,
      "▁нұ": 9994,
      "▁прода": 9995,
      "▁СПИД": 9996,
      "▁paydo": 9997,
      "▁Champions": 9998,
      "圣日": 9999,
      "▁best": 10000,
      "ини": 10001,
      "▁گېرمان": 10002,
      "排名": 10003,
      "ールド": 10004,
      "巴黎圣日": 10005,
      "耳曼": 10006,
      "▁Premier": 10007,
      "so": 10008,
      "▁released": 10009,
      "شنى": 10010,
      "غرى": 10011,
      "инжаң": 10012,
      "▁gerek": 10013,
      "巴黎圣日耳曼": 10014,
      "▁نەتى": 10015,
      "る。\t": 10016,
      "oss": 10017,
      "▁diz": 10018,
      "▁نەزەر": 10019,
      "▁сек": 10020,
      "▁баскет": 10021,
      "▁كوماندى": 10022,
      "▁Европ": 10023,
      "▁go'zal": 10024,
      "▁кам": 10025,
      "!!": 10026,
      "▁ئىچى": 10027,
      "▁суреттері": 10028,
      "ются": 10029,
      "▁yüksek": 10030,
      "ңуз": 10031,
      "公司": 10032,
      ".\tQ": 10033,
      "▁bol": 10034,
      "утб": 10035,
      "れた": 10036,
      "әс": 10037,
      "んな": 10038,
      "ыра": 10039,
      "ecek.\r\n": 10040,
      "▁inf": 10041,
      "▁مۇنەۋ": 10042,
      "сүз": 10043,
      "症状": 10044,
      "ема": 10045,
      "ance": 10046,
      "▁же": 10047,
      "を発表": 10048,
      "ら、": 10049,
      "▁дар": 10050,
      "▁алган": 10051,
      "ED": 10052,
      "▁ئوت": 10053,
      "▁конт": 10054,
      "▁g'al": 10055,
      "▁1/": 10056,
      "алары": 10057,
      "ұрын": 10058,
      "宇宙": 10059,
      "onaldo": 10060,
      "▁Ultra": 10061,
      "获得": 10062,
      "ildi.\r\n": 10063,
      "▁ür": 10064,
      "ۇرۇن": 10065,
      "▁Ян": 10066,
      "ai": 10067,
      "лық": 10068,
      "▁dört": 10069,
      "▁дв": 10070,
      "▁алты": 10071,
      "дөр": 10072,
      "укт": 10073,
      "ياتى": 10074,
      "o:": 10075,
      "icros": 10076,
      "▁sı": 10077,
      "▁болуп": 10078,
      "▁BMW": 10079,
      "esi:": 10080,
      "▁буду": 10081,
      "inj": 10082,
      "имп": 10083,
      "iyor.\r\n": 10084,
      "イト": 10085,
      "▁кур": 10086,
      "liğ": 10087,
      "▁ещ": 10088,
      "我が国": 10089,
      "ورت": 10090,
      "▁they": 10091,
      "▁ochko": 10092,
      "icrosoft": 10093,
      "▁прив": 10094,
      "▁transfer": 10095,
      "iladi.\t": 10096,
      "▁появ": 10097,
      "paceX": 10098,
      "we": 10099,
      "▁sal": 10100,
      "ayot": 10101,
      "▁дев": 10102,
      "▁участ": 10103,
      "الاي": 10104,
      "ох": 10105,
      "du.\r\n": 10106,
      "▁тағы": 10107,
      "үп": 10108,
      "市場": 10109,
      "di.\tА": 10110,
      "▁түрде": 10111,
      "вел": 10112,
      "なく": 10113,
      "▁ка": 10114,
      "▁нары": 10115,
      "▁gibi": 10116,
      "▁Ronaldu": 10117,
      "ğer": 10118,
      "▁фун": 10119,
      "▁Juventus": 10120,
      "даш": 10121,
      "дарды": 10122,
      "!\tS": 10123,
      "知道": 10124,
      "ルマン": 10125,
      "▁مار": 10126,
      "▁durum": 10127,
      "サンジェ": 10128,
      "-к": 10129,
      "rol": 10130,
      "ости": 10131,
      "▁автомобиля": 10132,
      "ящ": 10133,
      "▁тур:": 10134,
      "▁avtomobili": 10135,
      "غۇل": 10136,
      "орош": 10137,
      "ower": 10138,
      "ший": 10139,
      "ыч": 10140,
      "▁ме?\t": 10141,
      "▁Kr": 10142,
      "лон": 10143,
      "ские": 10144,
      "тті": 10145,
      "нді": 10146,
      "どのような": 10147,
      "▁29": 10148,
      "▁World": 10149,
      "ational": 10150,
      "gent": 10151,
      "▁كېسىلى": 10152,
      "▁bos": 10153,
      "▁مۇنەۋۋەر": 10154,
      "ーシ": 10155,
      "▁web": 10156,
      "qar": 10157,
      "孩子": 10158,
      "▁высок": 10159,
      "?\tQ": 10160,
      "▁كەت": 10161,
      "▁بازارغا": 10162,
      "▁art": 10163,
      "▁bul": 10164,
      "サンジェルマン": 10165,
      "WeChat": 10166,
      "▁тең": 10167,
      "атты": 10168,
      "lardan": 10169,
      "ngil": 10170,
      "▁سۆ": 10171,
      "گىلى": 10172,
      "ルの": 10173,
      "▁sy": 10174,
      "▁ди": 10175,
      "▁dik": 10176,
      "▁goals": 10177,
      "▁emas": 10178,
      "ery": 10179,
      "rat": 10180,
      "өк": 10181,
      "▁real": 10182,
      "▁غەلى": 10183,
      "ۈگۈن": 10184,
      "\tIn": 10185,
      "▁bah": 10186,
      "▁GT": 10187,
      "▁start": 10188,
      "あり": 10189,
      "▁komp": 10190,
      "aytir": 10191,
      "тып": 10192,
      "▁киреш": 10193,
      "原因": 10194,
      "▁оюнчу": 10195,
      "sat": 10196,
      "されます。\t": 10197,
      "リウ": 10198,
      "了一": 10199,
      "ылған": 10200,
      "ось": 10201,
      "▁پەسىل": 10202,
      "тобы": 10203,
      "мерика": 10204,
      "گو": 10205,
      "美しい": 10206,
      "▁нұсқ": 10207,
      "а:": 10208,
      "▁سەۋ": 10209,
      "▁qaysi": 10210,
      "شىپ": 10211,
      "ain": 10212,
      "▁qiy": 10213,
      "▁Челси": 10214,
      "场比赛": 10215,
      "▁vaq": 10216,
      "▁tal": 10217,
      "liği": 10218,
      "▁күч": 10219,
      "▁Ç": 10220,
      "огон": 10221,
      "▁Dünya": 10222,
      "▁Бр": 10223,
      "▁پى": 10224,
      "▁بىلى": 10225,
      "es\t": 10226,
      "▁кір": 10227,
      "》的": 10228,
      "▁söz": 10229,
      "айтын": 10230,
      "asizmi?\t": 10231,
      "обу": 10232,
      "ents": 10233,
      "▁look": 10234,
      "▁مەس": 10235,
      "iyle": 10236,
      "!\tM": 10237,
      "оман": 10238,
      "аман": 10239,
      "▁70": 10240,
      "fi": 10241,
      "▁айт": 10242,
      "▁Şampiyonlar": 10243,
      "nom": 10244,
      "あなたの": 10245,
      "ca": 10246,
      "тен": 10247,
      "илась": 10248,
      "▁стр": 10249,
      "照片\t": 10250,
      "▁көб": 10251,
      "ттү": 10252,
      "araj": 10253,
      "Ülkemiz": 10254,
      "лор": 10255,
      "ۋالى": 10256,
      "』の": 10257,
      "▁haf": 10258,
      "evi": 10259,
      "otor": 10260,
      "tirok": 10261,
      "▁еще": 10262,
      "una": 10263,
      "ilen": 10264,
      "▁сөз": 10265,
      "▁than": 10266,
      "▁جى": 10267,
      "▁ishtirok": 10268,
      "▁قالتىس": 10269,
      "o's": 10270,
      "уроп": 10271,
      "▁kut": 10272,
      "▁nars": 10273,
      "▁pul": 10274,
      "обр": 10275,
      "стер": 10276,
      "Реал": 10277,
      "سىنىڭ": 10278,
      "▁shart": 10279,
      "▁арт": 10280,
      "足球": 10281,
      "▁ayol": 10282,
      "liq": 10283,
      "ition": 10284,
      "indist": 10285,
      "▁официаль": 10286,
      "▁life": 10287,
      "▁zaman": 10288,
      "ры": 10289,
      "▁тран": 10290,
      "еймар": 10291,
      "最佳": 10292,
      "▁дай": 10293,
      "ление": 10294,
      "パリ・": 10295,
      "演员": 10296,
      "▁مۇكاپ": 10297,
      "▁жарнам": 10298,
      "▁نا": 10299,
      "▁bo'y": 10300,
      "mayı": 10301,
      "▁beautiful": 10302,
      "хэм": 10303,
      "▁mun": 10304,
      "iri": 10305,
      "айды.\t": 10306,
      "▁marta": 10307,
      "パリ・サンジェルマン": 10308,
      "тор": 10309,
      "تتى": 10310,
      "艾滋": 10311,
      "▁мер": 10312,
      "'i": 10313,
      "eh": 10314,
      "اتتى": 10315,
      "▁своей": 10316,
      "▁four": 10317,
      "▁свою": 10318,
      "▁دەرى": 10319,
      "▁سۈرى": 10320,
      "艾滋病": 10321,
      "үт": 10322,
      "ジョ": 10323,
      "▁ich": 10324,
      "▁жаб": 10325,
      "قىي": 10326,
      "yp": 10327,
      "自己": 10328,
      "▁yem": 10329,
      "します。\t": 10330,
      "▁set": 10331,
      "арын": 10332,
      "▁үм": 10333,
      "▁kazand": 10334,
      "8):": 10335,
      "ракт": 10336,
      "لىرىنىڭ": 10337,
      "üc": 10338,
      "▁тіз": 10339,
      "ууч": 10340,
      "жи": 10341,
      "осп": 10342,
      "бүз": 10343,
      "нен": 10344,
      "ilik": 10345,
      "▁Чемпиондар": 10346,
      "▁шолу": 10347,
      "ользов": 10348,
      "▁Chempionlar": 10349,
      "▁день": 10350,
      "▁деңг": 10351,
      "テッド": 10352,
      "▁кем": 10353,
      "▁​": 10354,
      "▁арасында": 10355,
      "yn": 10356,
      "жан": 10357,
      "开始": 10358,
      "агы": 10359,
      "▁көңүл": 10360,
      "▁bet": 10361,
      "омб": 10362,
      "үгін": 10363,
      "егі": 10364,
      "价格": 10365,
      "▁ұз": 10366,
      "ېنت": 10367,
      "Huawei": 10368,
      "яз": 10369,
      "▁met": 10370,
      "▁ماي": 10371,
      "рик": 10372,
      "▁We": 10373,
      "▁exp": 10374,
      "▁нед": 10375,
      "▁ئاياللار": 10376,
      "▁время": 10377,
      "▁گۇ": 10378,
      "▁кайра": 10379,
      "ғам": 10380,
      "ユナイ": 10381,
      "▁بۈگۈن": 10382,
      "▁боюн": 10383,
      "を決": 10384,
      "▁Tian": 10385,
      "▁ئالدى": 10386,
      "ユナイテッド": 10387,
      "」の": 10388,
      "bu": 10389,
      "елей": 10390,
      "ル・": 10391,
      "▁сур": 10392,
      "lion": 10393,
      "▁market": 10394,
      "\tӨ": 10395,
      "他的": 10396,
      "анс": 10397,
      "▁تىزىم": 10398,
      "ствен": 10399,
      "▁görün": 10400,
      "-tur": 10401,
      ".5": 10402,
      "▁Xinjiang": 10403,
      "▁شياۋ": 10404,
      "▁become": 10405,
      "▁سەۋە": 10406,
      "dim": 10407,
      "lim": 10408,
      "▁faz": 10409,
      "уучу": 10410,
      "とな": 10411,
      "メリカ": 10412,
      "арри": 10413,
      "▁31": 10414,
      "▁әдемі": 10415,
      "rupa": 10416,
      "代表": 10417,
      "cak": 10418,
      "▁يەر": 10419,
      "▁Мбаппе": 10420,
      "▁әр": 10421,
      "▁dikkat": 10422,
      "-كۈنى": 10423,
      "him": 10424,
      "ロー": 10425,
      "▁32": 10426,
      "'daki": 10427,
      "لىۋود": 10428,
      "gin": 10429,
      "につ": 10430,
      "aviy": 10431,
      "▁ro'y": 10432,
      "▁چىقتى": 10433,
      "▁свой": 10434,
      "▁быть": 10435,
      "▁жарыялады.\t": 10436,
      "90": 10437,
      "▁der": 10438,
      "▁قاتنى": 10439,
      "▁тер": 10440,
      "oog": 10441,
      "onor": 10442,
      "▁алтын": 10443,
      "ябр": 10444,
      "スの": 10445,
      "多く": 10446,
      "▁hayot": 10447,
      "▁келісім": 10448,
      "oni": 10449,
      "ше": 10450,
      "ない。\t": 10451,
      "ever": 10452,
      "▁so'nggi": 10453,
      "van": 10454,
      "ьян": 10455,
      "uper": 10456,
      "▁касс": 10457,
      "үүгө": 10458,
      "ыгы": 10459,
      "үңүз": 10460,
      "inci": 10461,
      "を獲得": 10462,
      "▁сн": 10463,
      "larının": 10464,
      "دى\tM": 10465,
      "▁аяқ": 10466,
      "▁есть": 10467,
      "▁erish": 10468,
      "▁голов": 10469,
      "▁түз": 10470,
      "▁Чемпиондор": 10471,
      "▁сулуу": 10472,
      "▁نېمىشقا": 10473,
      "で、": 10474,
      "лиг": 10475,
      "▁300": 10476,
      "▁Toyota": 10477,
      "▁ئامېرىكا": 10478,
      "дөн": 10479,
      "lama": 10480,
      "▁ээ": 10481,
      "ильма": 10482,
      "owski": 10483,
      "لاند": 10484,
      "▁san": 10485,
      "?\tТ": 10486,
      "▁day": 10487,
      "станов": 10488,
      "ft": 10489,
      "!\tБ": 10490,
      "▁Guang": 10491,
      "eti": 10492,
      "иши": 10493,
      "ih": 10494,
      "▁iz": 10495,
      "▁biz": 10496,
      "▁reg": 10497,
      "▁айыр": 10498,
      "tract": 10499,
      "ло": 10500,
      "▁ку": 10501,
      "▁ro'yx": 10502,
      "▁قانچىلىك": 10503,
      "▁сын": 10504,
      "▁ret": 10505,
      "dı\r\n": 10506,
      "▁değiş": 10507,
      "▁Huawei": 10508,
      "▁version": 10509,
      "ュン": 10510,
      "他们": 10511,
      "دىز": 10512,
      "ылай": 10513,
      "rada": 10514,
      "▁миллионов": 10515,
      "▁әйелдер": 10516,
      "▁три": 10517,
      "adece": 10518,
      "ブラ": 10519,
      "лим": 10520,
      "oin": 10521,
      "?\tD": 10522,
      "ed\t": 10523,
      "▁нә": 10524,
      "▁كۈن": 10525,
      "Пр": 10526,
      "ль": 10527,
      "どれ": 10528,
      "ticip": 10529,
      ".\tCh": 10530,
      "▁емес": 10531,
      "'e": 10532,
      "dat": 10533,
      "pt": 10534,
      "▁сем": 10535,
      "олот": 10536,
      "▁o'yini": 10537,
      "▁رى": 10538,
      "ھى": 10539,
      "人的": 10540,
      "▁Zh": 10541,
      "yla": 10542,
      "▁чтобы": 10543,
      "иялық": 10544,
      "9):": 10545,
      "▁мур": 10546,
      "▁миң": 10547,
      "▁келишим": 10548,
      "евандовски": 10549,
      "200": 10550,
      "▁ئۇدا": 10551,
      "▁людей": 10552,
      "▁yo'q": 10553,
      "▁или": 10554,
      "asidagi": 10555,
      "▁narxi": 10556,
      "▁tas": 10557,
      "larining": 10558,
      "▁akt": 10559,
      "▁ئالتۇن": 10560,
      "▁рейтинг": 10561,
      "سىي": 10562,
      ".\tApple": 10563,
      "▁rekor": 10564,
      "tın": 10565,
      "иться": 10566,
      "ilraba": 10567,
      "шк": 10568,
      "▁дер": 10569,
      "икалык": 10570,
      "ەلق": 10571,
      "oogle": 10572,
      "iss": 10573,
      "▁yur": 10574,
      "▁ün": 10575,
      "場合": 10576,
      "'lub": 10577,
      "▁33": 10578,
      "▁يانفون": 10579,
      "▁ming": 10580,
      "roup": 10581,
      "▁ağ": 10582,
      "▁yoq": 10583,
      "▁hayat": 10584,
      "▁qo'lga": 10585,
      "ви": 10586,
      "با": 10587,
      "地球": 10588,
      ".\tC": 10589,
      "вод": 10590,
      "▁مەن": 10591,
      "сих": 10592,
      "ğu": 10593,
      "▁شەھ": 10594,
      "'z": 10595,
      "▁унаасы": 10596,
      "▁автокөлі": 10597,
      "契約": 10598,
      "▁sec": 10599,
      "▁muk": 10600,
      "▁Bir": 10601,
      "ragon": 10602,
      "シア": 10603,
      "重要": 10604,
      "▁жариялады.\t": 10605,
      "?\tМ": 10606,
      "'de": 10607,
      "ワールド": 10608,
      "▁жүрө": 10609,
      "リウッド": 10610,
      "e,": 10611,
      "tention": 10612,
      "ейкерс": 10613,
      "▁(3)\t": 10614,
      "▁kır": 10615,
      "ンを": 10616,
      "莱坞": 10617,
      "act": 10618,
      "üs": 10619,
      "▁yön": 10620,
      "▁женщин": 10621,
      "▁модель": 10622,
      "elsea": 10623,
      "▁тізім": 10624,
      "IT": 10625,
      "тон": 10626,
      "▁өте": 10627,
      "：我": 10628,
      "▁خەلق": 10629,
      "▁забил": 10630,
      "▁girl": 10631,
      "▁money": 10632,
      "▁каб": 10633,
      "▁Криштиану": 10634,
      "ров": 10635,
      "▁сист": 10636,
      "▁төл": 10637,
      "▁тизм": 10638,
      "▁En": 10639,
      "を受": 10640,
      "▁мед": 10641,
      "lara": 10642,
      "▁ئۇس": 10643,
      "▁futbolchilar": 10644,
      "▁Yunay": 10645,
      "dition": 10646,
      "▁который": 10647,
      "▁Yunayted": 10648,
      "уа": 10649,
      "ۈم": 10650,
      "у,": 10651,
      "▁құр": 10652,
      "emli": 10653,
      "什么？\t": 10654,
      "あなたは": 10655,
      "▁дет": 10656,
      "▁болып": 10657,
      "▁heart": 10658,
      "▁қолдан": 10659,
      "▁De": 10660,
      "▁zarar": 10661,
      "ると": 10662,
      "国际": 10663,
      "одня": 10664,
      "ody": 10665,
      "joyib": 10666,
      "▁tür": 10667,
      "айы": 10668,
      "使用": 10669,
      "▁мол": 10670,
      "▁كىش": 10671,
      "adın": 10672,
      "▁ئەيدىز": 10673,
      "ىللىق": 10674,
      "-ئايلانما": 10675,
      "cc": 10676,
      "бер": 10677,
      "ران": 10678,
      "▁haqida": 10679,
      "atij": 10680,
      "окт": 10681,
      "▁پۇت": 10682,
      "имптом": 10683,
      "ۇي": 10684,
      "-м": 10685,
      "mış": 10686,
      "▁كە": 10687,
      "Не": 10688,
      "最大": 10689,
      "دى\tS": 10690,
      "lüm": 10691,
      "▁құрам": 10692,
      "▁боюнча": 10693,
      "その": 10694,
      "orat": 10695,
      "▁price": 10696,
      "▁өлкө": 10697,
      "▁болған": 10698,
      "▁ساق": 10699,
      "米兰": 10700,
      "良い": 10701,
      "▁технолог": 10702,
      "▁لې": 10703,
      "▁değil": 10704,
      "▁particip": 10705,
      "ために": 10706,
      "PV": 10707,
      ".\tİ": 10708,
      "プロ": 10709,
      "еги": 10710,
      "▁دۆلەت": 10711,
      "بە": 10712,
      "arri": 10713,
      "▁кый": 10714,
      "uvchi": 10715,
      "▁ov": 10716,
      "▁دىق": 10717,
      "▁توخت": 10718,
      "ИТ": 10719,
      "▁кач": 10720,
      "ета": 10721,
      "▁больше": 10722,
      "曼联": 10723,
      "▁com": 10724,
      "が公開されました。\t": 10725,
      "лек": 10726,
      "ылық": 10727,
      "ерлер": 10728,
      "▁Liverp": 10729,
      "▁eg": 10730,
      "▁mag'lub": 10731,
      "▁sign": 10732,
      "▁алат": 10733,
      "ماس": 10734,
      "▁когда": 10735,
      "▁يېقى": 10736,
      "ирован": 10737,
      "▁жогорку": 10738,
      "имание": 10739,
      "ルー": 10740,
      "▁natij": 10741,
      "▁экран": 10742,
      "-ئايلانما:": 10743,
      "dus": 10744,
      "▁трен": 10745,
      "▁far": 10746,
      "تانى": 10747,
      "алия": 10748,
      "▁эс": 10749,
[...]
